{
  "version": "1.0",
  "truncation": null,
  "padding": null,
  "added_tokens": [
    {
      "id": 0,
      "content": "[PAD]",
      "single_word": false,
      "lstrip": false,
      "rstrip": false,
      "normalized": false,
      "special": true
    },
    {
      "id": 1,
      "content": "[UNK]",
      "single_word": false,
      "lstrip": false,
      "rstrip": false,
      "normalized": false,
      "special": true
    },
    {
      "id": 2,
      "content": "[CLS]",
      "single_word": false,
      "lstrip": false,
      "rstrip": false,
      "normalized": false,
      "special": true
    },
    {
      "id": 3,
      "content": "[SEP]",
      "single_word": false,
      "lstrip": false,
      "rstrip": false,
      "normalized": false,
      "special": true
    },
    {
      "id": 4,
      "content": "[MASK]",
      "single_word": false,
      "lstrip": false,
      "rstrip": false,
      "normalized": false,
      "special": true
    }
  ],
  "normalizer": null,
  "pre_tokenizer": {
    "type": "Whitespace"
  },
  "post_processor": null,
  "decoder": null,
  "model": {
    "type": "BPE",
    "dropout": null,
    "unk_token": "[UNK]",
    "continuing_subword_prefix": null,
    "end_of_word_suffix": null,
    "fuse_unk": false,
    "byte_fallback": false,
    "ignore_merges": false,
    "vocab": {
      "[PAD]": 0,
      "[UNK]": 1,
      "[CLS]": 2,
      "[SEP]": 3,
      "[MASK]": 4,
      "!": 5,
      "\"": 6,
      "#": 7,
      "$": 8,
      "%": 9,
      "&": 10,
      "'": 11,
      "(": 12,
      ")": 13,
      "*": 14,
      "+": 15,
      ",": 16,
      "-": 17,
      ".": 18,
      "/": 19,
      "0": 20,
      "1": 21,
      "2": 22,
      "3": 23,
      "4": 24,
      "5": 25,
      "6": 26,
      "7": 27,
      "8": 28,
      "9": 29,
      ":": 30,
      ";": 31,
      "=": 32,
      "?": 33,
      "@": 34,
      "K": 35,
      "N": 36,
      "U": 37,
      "[": 38,
      "\\": 39,
      "]": 40,
      "^": 41,
      "_": 42,
      "`": 43,
      "a": 44,
      "b": 45,
      "c": 46,
      "d": 47,
      "e": 48,
      "f": 49,
      "g": 50,
      "h": 51,
      "i": 52,
      "j": 53,
      "k": 54,
      "l": 55,
      "m": 56,
      "n": 57,
      "o": 58,
      "p": 59,
      "q": 60,
      "r": 61,
      "s": 62,
      "t": 63,
      "u": 64,
      "v": 65,
      "w": 66,
      "x": 67,
      "y": 68,
      "z": 69,
      "{": 70,
      "|": 71,
      "}": 72,
      "~": 73,
      "¡": 74,
      "¢": 75,
      "£": 76,
      "§": 77,
      "®": 78,
      "°": 79,
      "·": 80,
      "¹": 81,
      "»": 82,
      "¼": 83,
      "½": 84,
      "à": 85,
      "á": 86,
      "â": 87,
      "ä": 88,
      "è": 89,
      "é": 90,
      "ì": 91,
      "í": 92,
      "î": 93,
      "ñ": 94,
      "ò": 95,
      "ó": 96,
      "ö": 97,
      "ú": 98,
      "û": 99,
      "ü": 100,
      "‚": 101,
      "•": 102,
      "′": 103,
      "″": 104,
      "⁄": 105,
      "₂": 106,
      "€": 107,
      "₹": 108,
      "！": 109,
      "th": 110,
      "the": 111,
      "in": 112,
      "re": 113,
      "an": 114,
      "er": 115,
      "ou": 116,
      "at": 117,
      "on": 118,
      "as": 119,
      "to": 120,
      "and": 121,
      "en": 122,
      "al": 123,
      "it": 124,
      "or": 125,
      "is": 126,
      "ing": 127,
      "ed": 128,
      "es": 129,
      "st": 130,
      "ic": 131,
      "ar": 132,
      "ly": 133,
      "me": 134,
      "of": 135,
      "le": 136,
      "oo": 137,
      "we": 138,
      "was": 139,
      "ch": 140,
      "ve": 141,
      "be": 142,
      "ha": 143,
      "ac": 144,
      "no": 145,
      "se": 146,
      "bu": 147,
      "so": 148,
      "wh": 149,
      "ver": 150,
      "for": 151,
      "..": 152,
      "ll": 153,
      "ay": 154,
      "de": 155,
      "you": 156,
      "ood": 157,
      "wi": 158,
      "he": 159,
      "ri": 160,
      "that": 161,
      "ro": 162,
      "ti": 163,
      "my": 164,
      "pl": 165,
      "gh": 166,
      "ke": 167,
      "but": 168,
      "li": 169,
      "ge": 170,
      "co": 171,
      "ld": 172,
      "ad": 173,
      "ab": 174,
      "with": 175,
      "out": 176,
      "are": 177,
      "lo": 178,
      "this": 179,
      "they": 180,
      "not": 181,
      "us": 182,
      "ho": 183,
      "ent": 184,
      "ir": 185,
      "all": 186,
      "ally": 187,
      "go": 188,
      "ice": 189,
      "un": 190,
      "id": 191,
      "ce": 192,
      "have": 193,
      "pe": 194,
      "mo": 195,
      "one": 196,
      "ast": 197,
      "ne": 198,
      "do": 199,
      "am": 200,
      "ter": 201,
      "fe": 202,
      "had": 203,
      "au": 204,
      "plac": 205,
      "ould": 206,
      "ust": 207,
      "ant": 208,
      "food": 209,
      "ght": 210,
      "ser": 211,
      "our": 212,
      "very": 213,
      "up": 214,
      "were": 215,
      "end": 216,
      "good": 217,
      "place": 218,
      "ex": 219,
      "if": 220,
      "there": 221,
      "si": 222,
      "ther": 223,
      "po": 224,
      "some": 225,
      "gre": 226,
      "ap": 227,
      "thing": 228,
      "get": 229,
      "just": 230,
      "like": 231,
      "ma": 232,
      "red": 233,
      "...": 234,
      "ack": 235,
      "te": 236,
      "com": 237,
      "su": 238,
      "here": 239,
      "ion": 240,
      "fri": 241,
      "ers": 242,
      "tr": 243,
      "way": 244,
      "af": 245,
      "qu": 246,
      "ite": 247,
      "wn": 248,
      "ate": 249,
      "res": 250,
      "ple": 251,
      "any": 252,
      "ked": 253,
      "serv": 254,
      "ty": 255,
      "ur": 256,
      "oun": 257,
      "ich": 258,
      "ain": 259,
      "king": 260,
      "other": 261,
      "ven": 262,
      "can": 263,
      "ul": 264,
      "pr": 265,
      "ick": 266,
      "ess": 267,
      "would": 268,
      "ie": 269,
      "sa": 270,
      "great": 271,
      "fro": 272,
      "bo": 273,
      "che": 274,
      "when": 275,
      "really": 276,
      "ts": 277,
      "con": 278,
      "ink": 279,
      "fin": 280,
      "pp": 281,
      "now": 282,
      "their": 283,
      "time": 284,
      "av": 285,
      "ag": 286,
      "hi": 287,
      "tion": 288,
      "est": 289,
      "did": 290,
      "from": 291,
      "too": 292,
      "day": 293,
      "der": 294,
      "wor": 295,
      "about": 296,
      "what": 297,
      "back": 298,
      "sp": 299,
      "ough": 300,
      "ill": 301,
      "ish": 302,
      "over": 303,
      "ous": 304,
      "able": 305,
      "wa": 306,
      "per": 307,
      "il": 308,
      "don": 309,
      "pro": 310,
      "service": 311,
      "ye": 312,
      "your": 313,
      "ck": 314,
      "ut": 315,
      "pre": 316,
      "ta": 317,
      "wait": 318,
      "ation": 319,
      "art": 320,
      "sh": 321,
      "more": 322,
      "friend": 323,
      "only": 324,
      "by": 325,
      "ca": 326,
      "rest": 327,
      "even": 328,
      "been": 329,
      "dr": 330,
      "min": 331,
      "which": 332,
      "sal": 333,
      "ound": 334,
      "ard": 335,
      "see": 336,
      "el": 337,
      "she": 338,
      "pec": 339,
      "will": 340,
      "mp": 341,
      "ight": 342,
      "than": 343,
      "iz": 344,
      "loo": 345,
      "tast": 346,
      "off": 347,
      "also": 348,
      "them": 349,
      "cau": 350,
      "itt": 351,
      "every": 352,
      "act": 353,
      "gr": 354,
      "who": 355,
      "cause": 356,
      "want": 357,
      "after": 358,
      "cr": 359,
      "side": 360,
      "rant": 361,
      "because": 362,
      "gi": 363,
      "men": 364,
      "um": 365,
      "ine": 366,
      "how": 367,
      "ong": 368,
      "got": 369,
      "restau": 370,
      "ig": 371,
      "restaurant": 372,
      "could": 373,
      "has": 374,
      "jo": 375,
      "ak": 376,
      "!!": 377,
      "read": 378,
      "well": 379,
      "then": 380,
      "ars": 381,
      "fl": 382,
      "eat": 383,
      "ted": 384,
      "fo": 385,
      "bet": 386,
      "ful": 387,
      "sto": 388,
      "mu": 389,
      "ious": 390,
      "nice": 391,
      "dis": 392,
      "try": 393,
      "ually": 394,
      "know": 395,
      "ese": 396,
      "et": 397,
      "bar": 398,
      "br": 399,
      "wo": 400,
      "dec": 401,
      "avor": 402,
      "didn": 403,
      "gu": 404,
      "order": 405,
      "litt": 406,
      "lu": 407,
      "ways": 408,
      "little": 409,
      "most": 410,
      "bur": 411,
      "much": 412,
      "whe": 413,
      "vie": 414,
      "ble": 415,
      "ment": 416,
      "dered": 417,
      "sin": 418,
      "par": 419,
      "pret": 420,
      "ordered": 421,
      "loc": 422,
      "ind": 423,
      "peo": 424,
      "op": 425,
      "tom": 426,
      "say": 427,
      "down": 428,
      "people": 429,
      "ting": 430,
      "ile": 431,
      "love": 432,
      "always": 433,
      "aff": 434,
      "ste": 435,
      "where": 436,
      "fir": 437,
      "coo": 438,
      "never": 439,
      "man": 440,
      "ity": 441,
      "table": 442,
      "ress": 443,
      "better": 444,
      "think": 445,
      "ass": 446,
      "din": 447,
      "chick": 448,
      "bl": 449,
      "went": 450,
      "age": 451,
      "her": 452,
      "pretty": 453,
      "drink": 454,
      "des": 455,
      "night": 456,
      "cre": 457,
      "first": 458,
      "chicken": 459,
      "going": 460,
      "may": 461,
      "again": 462,
      "ren": 463,
      "ps": 464,
      "menu": 465,
      "ien": 466,
      "ms": 467,
      "mes": 468,
      "ved": 469,
      "med": 470,
      "staff": 471,
      "ten": 472,
      "though": 473,
      "lic": 474,
      "best": 475,
      "right": 476,
      "make": 477,
      ").": 478,
      "new": 479,
      "view": 480,
      "az": 481,
      "fore": 482,
      "ated": 483,
      "came": 484,
      "sm": 485,
      "ry": 486,
      "unch": 487,
      "sel": 488,
      "ger": 489,
      "ree": 490,
      "poin": 491,
      "por": 492,
      "ok": 493,
      "pric": 494,
      "happ": 495,
      "ater": 496,
      "need": 497,
      "sau": 498,
      "izz": 499,
      "come": 500,
      "ks": 501,
      "still": 502,
      "pizz": 503,
      "two": 504,
      "ix": 505,
      "its": 506,
      "ving": 507,
      "made": 508,
      "hour": 509,
      "salad": 510,
      "bad": 511,
      "exper": 512,
      "roo": 513,
      "gg": 514,
      "ner": 515,
      "cheese": 516,
      "peci": 517,
      "ought": 518,
      "experien": 519,
      "take": 520,
      "aw": 521,
      "cle": 522,
      "car": 523,
      "times": 524,
      "tur": 525,
      "before": 526,
      "ever": 527,
      "ct": 528,
      "review": 529,
      "ber": 530,
      "air": 531,
      "pot": 532,
      "ave": 533,
      "....": 534,
      "ian": 535,
      "while": 536,
      "mar": 537,
      "lp": 538,
      "said": 539,
      "ach": 540,
      "bit": 541,
      "wal": 542,
      "few": 543,
      "im": 544,
      "sho": 545,
      "pizza": 546,
      "tri": 547,
      "les": 548,
      "around": 549,
      "meal": 550,
      "less": 551,
      "another": 552,
      "self": 553,
      "sauce": 554,
      "cus": 555,
      "flavor": 556,
      "mon": 557,
      "sure": 558,
      "sand": 559,
      "cho": 560,
      "fres": 561,
      "sup": 562,
      "ction": 563,
      "let": 564,
      "since": 565,
      "low": 566,
      "utes": 567,
      "fast": 568,
      "lunch": 569,
      "give": 570,
      "bre": 571,
      "minutes": 572,
      "fresh": 573,
      "actually": 574,
      "ure": 575,
      "friendly": 576,
      "ist": 577,
      "gl": 578,
      "won": 579,
      "something": 580,
      "vis": 581,
      "experience": 582,
      "oup": 583,
      "chi": 584,
      "fr": 585,
      "ato": 586,
      "10": 587,
      "ably": 588,
      "wich": 589,
      "feel": 590,
      "sandwich": 591,
      "pho": 592,
      "ason": 593,
      "ings": 594,
      "ff": 595,
      "kes": 596,
      "long": 597,
      "wasn": 598,
      "own": 599,
      "big": 600,
      "being": 601,
      "should": 602,
      "call": 603,
      "does": 604,
      "ale": 605,
      "find": 606,
      "clo": 607,
      "asked": 608,
      "small": 609,
      "last": 610,
      "custom": 611,
      "location": 612,
      "ive": 613,
      "home": 614,
      "work": 615,
      "price": 616,
      "turn": 617,
      "xt": 618,
      "fu": 619,
      "du": 620,
      "dish": 621,
      "next": 622,
      "meat": 623,
      "happy": 624,
      "burger": 625,
      "wr": 626,
      "cor": 627,
      "ame": 628,
      "io": 629,
      "high": 630,
      "defin": 631,
      "joy": 632,
      "into": 633,
      "sat": 634,
      "light": 635,
      "wee": 636,
      "lot": 637,
      "cas": 638,
      "ans": 639,
      "ies": 640,
      "stand": 641,
      "room": 642,
      "itely": 643,
      "area": 644,
      "enjoy": 645,
      "maybe": 646,
      "pat": 647,
      "ily": 648,
      "delic": 649,
      "dinner": 650,
      "comm": 651,
      "ra": 652,
      "offe": 653,
      "his": 654,
      "server": 655,
      "ang": 656,
      "dif": 657,
      "appoin": 658,
      "many": 659,
      "part": 660,
      "pers": 661,
      "clean": 662,
      "mis": 663,
      "definitely": 664,
      "kind": 665,
      "ort": 666,
      "told": 667,
      "prob": 668,
      "delicious": 669,
      "speci": 670,
      "add": 671,
      "special": 672,
      "probably": 673,
      "rent": 674,
      "enough": 675,
      "hu": 676,
      "bread": 677,
      "bas": 678,
      "stars": 679,
      "expec": 680,
      "cent": 681,
      "took": 682,
      "cu": 683,
      "everything": 684,
      "pic": 685,
      "person": 686,
      "appe": 687,
      "sy": 688,
      "hot": 689,
      "row": 690,
      "star": 691,
      "guy": 692,
      "help": 693,
      "nothing": 694,
      "pos": 695,
      "arge": 696,
      "old": 697,
      "exce": 698,
      "visit": 699,
      "stu": 700,
      "looking": 701,
      "taste": 702,
      "mus": 703,
      "wanted": 704,
      "roll": 705,
      "both": 706,
      "ef": 707,
      "disappoin": 708,
      "di": 709,
      "ep": 710,
      "cl": 711,
      "worth": 712,
      "ality": 713,
      "things": 714,
      "swe": 715,
      "town": 716,
      "tions": 717,
      "hand": 718,
      "ft": 719,
      "ular": 720,
      "break": 721,
      "coun": 722,
      "val": 723,
      "drinks": 724,
      "open": 725,
      "water": 726,
      "tain": 727,
      "col": 728,
      "store": 729,
      "reason": 730,
      "sus": 731,
      "why": 732,
      "ves": 733,
      "prices": 734,
      "thought": 735,
      "pt": 736,
      "tre": 737,
      "diffe": 738,
      "),": 739,
      "fries": 740,
      "under": 741,
      "past": 742,
      "bro": 743,
      "check": 744,
      "same": 745,
      "recomm": 746,
      "atch": 747,
      "recommend": 748,
      "ating": 749,
      "dri": 750,
      "imp": 751,
      "wever": 752,
      "however": 753,
      "mm": 754,
      "ance": 755,
      "ru": 756,
      "tal": 757,
      "amaz": 758,
      "else": 759,
      "tac": 760,
      "start": 761,
      "gar": 762,
      "these": 763,
      "20": 764,
      "sco": 765,
      "pay": 766,
      "ange": 767,
      "quite": 768,
      "ai": 769,
      "favor": 770,
      "real": 771,
      "anything": 772,
      "week": 773,
      "ided": 774,
      "beer": 775,
      "door": 776,
      "sur": 777,
      "phoen": 778,
      "fun": 779,
      "hou": 780,
      "sha": 781,
      "ss": 782,
      "used": 783,
      "tho": 784,
      "pu": 785,
      "reg": 786,
      "sele": 787,
      "cer": 788,
      "ning": 789,
      "ail": 790,
      "usually": 791,
      "phoenix": 792,
      "friends": 793,
      "inc": 794,
      "pped": 795,
      "sweet": 796,
      "ican": 797,
      "amazing": 798,
      "left": 799,
      "tried": 800,
      "tely": 801,
      "sushi": 802,
      "ba": 803,
      "house": 804,
      "os": 805,
      "lt": 806,
      "hal": 807,
      "ately": 808,
      "quality": 809,
      "tu": 810,
      "different": 811,
      "far": 812,
      "nor": 813,
      "oney": 814,
      "yes": 815,
      "rice": 816,
      "ask": 817,
      "ient": 818,
      "rough": 819,
      "pleas": 820,
      "pare": 821,
      "away": 822,
      "breakfast": 823,
      "almost": 824,
      "ready": 825,
      "perfe": 826,
      "free": 827,
      "line": 828,
      "ise": 829,
      "put": 830,
      "ace": 831,
      "coffe": 832,
      "sphere": 833,
      "wine": 834,
      "quick": 835,
      "hard": 836,
      "atmo": 837,
      "once": 838,
      "plain": 839,
      "atmosphere": 840,
      "tor": 841,
      "la": 842,
      "chin": 843,
      "cour": 844,
      "places": 845,
      "him": 846,
      "bs": 847,
      "coffee": 848,
      "getting": 849,
      "super": 850,
      "look": 851,
      "ome": 852,
      "half": 853,
      "tasty": 854,
      "those": 855,
      "ide": 856,
      "cons": 857,
      "care": 858,
      "ph": 859,
      "ue": 860,
      "scot": 861,
      "selection": 862,
      "ket": 863,
      "full": 864,
      "cou": 865,
      "top": 866,
      "spic": 867,
      "return": 868,
      "found": 869,
      "through": 870,
      "waitress": 871,
      "decided": 872,
      "cream": 873,
      "beef": 874,
      "years": 875,
      "iously": 876,
      "led": 877,
      "inside": 878,
      "war": 879,
      "ces": 880,
      "perfect": 881,
      "comple": 882,
      "cool": 883,
      "least": 884,
      "show": 885,
      "em": 886,
      "kid": 887,
      "band": 888,
      "fill": 889,
      "oh": 890,
      "tsd": 891,
      "pping": 892,
      "arly": 893,
      "tun": 894,
      "stuff": 895,
      "fried": 896,
      "boo": 897,
      "each": 898,
      "sive": 899,
      "live": 900,
      "tsdale": 901,
      "huge": 902,
      "ables": 903,
      "gen": 904,
      "ci": 905,
      "finally": 906,
      "outside": 907,
      "ither": 908,
      "ool": 909,
      "siness": 910,
      "business": 911,
      "til": 912,
      "favorite": 913,
      "itch": 914,
      "eating": 915,
      "tell": 916,
      "??": 917,
      "fish": 918,
      "cks": 919,
      "whole": 920,
      "scottsdale": 921,
      "30": 922,
      "busy": 923,
      "green": 924,
      "manag": 925,
      "ross": 926,
      "gn": 927,
      "large": 928,
      "potato": 929,
      "egg": 930,
      "having": 931,
      "cur": 932,
      "set": 933,
      "sun": 934,
      "ons": 935,
      "str": 936,
      "mem": 937,
      "rible": 938,
      "play": 939,
      "mex": 940,
      "pie": 941,
      "use": 942,
      "head": 943,
      "cup": 944,
      "gir": 945,
      "couple": 946,
      "decent": 947,
      "run": 948,
      "cheap": 949,
      "tin": 950,
      "someone": 951,
      "looked": 952,
      "hor": 953,
      "customer": 954,
      "steak": 955,
      "money": 956,
      "arri": 957,
      "tasted": 958,
      "deal": 959,
      "ition": 960,
      "served": 961,
      "three": 962,
      "ual": 963,
      "priced": 964,
      "girl": 965,
      "pan": 966,
      "ont": 967,
      "overall": 968,
      "must": 969,
      "pick": 970,
      "fam": 971,
      "cond": 972,
      "isn": 973,
      "enti": 974,
      "plate": 975,
      "such": 976,
      "reviews": 977,
      "front": 978,
      "inste": 979,
      "either": 980,
      "awes": 981,
      "cooked": 982,
      "siz": 983,
      "bow": 984,
      "gri": 985,
      "ah": 986,
      "ded": 987,
      "fan": 988,
      "sit": 989,
      "doesn": 990,
      "until": 991,
      "everyone": 992,
      "pen": 993,
      "sing": 994,
      "watch": 995,
      "awesome": 996,
      "lled": 997,
      "fi": 998,
      "tive": 999,
      "glass": 1000,
      "thai": 1001,
      "instead": 1002,
      "soup": 1003,
      "spicy": 1004,
      "gave": 1005,
      "items": 1006,
      "sion": 1007,
      "tiz": 1008,
      "without": 1009,
      "pa": 1010,
      "ped": 1011,
      "ny": 1012,
      "coming": 1013,
      "disappointed": 1014,
      "llo": 1015,
      "appetiz": 1016,
      "spot": 1017,
      "bb": 1018,
      "ding": 1019,
      "vent": 1020,
      "uring": 1021,
      "ash": 1022,
      "ressed": 1023,
      "parking": 1024,
      "sty": 1025,
      "stay": 1026,
      "plo": 1027,
      "done": 1028,
      "tend": 1029,
      "okay": 1030,
      "close": 1031,
      "dy": 1032,
      "today": 1033,
      "mexican": 1034,
      "ob": 1035,
      "hus": 1036,
      "tra": 1037,
      "manager": 1038,
      "cal": 1039,
      "guess": 1040,
      "excell": 1041,
      "wonder": 1042,
      "local": 1043,
      "keep": 1044,
      "seemed": 1045,
      "--": 1046,
      "ary": 1047,
      "atten": 1048,
      "excellent": 1049,
      "decor": 1050,
      "customers": 1051,
      "eas": 1052,
      "ia": 1053,
      "expect": 1054,
      "waiting": 1055,
      "bring": 1056,
      "wrong": 1057,
      "husband": 1058,
      "ates": 1059,
      "myself": 1060,
      "bot": 1061,
      "patio": 1062,
      "ically": 1063,
      "ley": 1064,
      "group": 1065,
      "ago": 1066,
      "sign": 1067,
      "gree": 1068,
      "called": 1069,
      "ations": 1070,
      "couldn": 1071,
      "desser": 1072,
      "00": 1073,
      "wouldn": 1074,
      "walked": 1075,
      "15": 1076,
      "during": 1077,
      "que": 1078,
      "!!!": 1079,
      "second": 1080,
      "trying": 1081,
      "surpr": 1082,
      "char": 1083,
      "seem": 1084,
      "dog": 1085,
      "bowl": 1086,
      "tables": 1087,
      "main": 1088,
      "yet": 1089,
      "pecially": 1090,
      "dining": 1091,
      "music": 1092,
      "crow": 1093,
      "later": 1094,
      "especially": 1095,
      "lack": 1096,
      "\".": 1097,
      "verage": 1098,
      "ds": 1099,
      "yum": 1100,
      "comes": 1101,
      "ned": 1102,
      "sever": 1103,
      "sk": 1104,
      "makes": 1105,
      "pork": 1106,
      "chips": 1107,
      "int": 1108,
      "inter": 1109,
      "gener": 1110,
      "ton": 1111,
      "emplo": 1112,
      "extra": 1113,
      "boy": 1114,
      "ited": 1115,
      "year": 1116,
      "tomato": 1117,
      "several": 1118,
      "pm": 1119,
      "ju": 1120,
      "waiter": 1121,
      "mix": 1122,
      "might": 1123,
      "cake": 1124,
      "bill": 1125,
      "cut": 1126,
      "thin": 1127,
      "buy": 1128,
      "hours": 1129,
      "shri": 1130,
      "restaurants": 1131,
      "gy": 1132,
      "dry": 1133,
      "mean": 1134,
      "finish": 1135,
      "days": 1136,
      "bor": 1137,
      "name": 1138,
      "although": 1139,
      "rece": 1140,
      "tail": 1141,
      "spr": 1142,
      "seems": 1143,
      "ward": 1144,
      "astic": 1145,
      "course": 1146,
      "fact": 1147,
      "oc": 1148,
      "shrimp": 1149,
      "pri": 1150,
      "pres": 1151,
      "tic": 1152,
      "yelp": 1153,
      "near": 1154,
      "offer": 1155,
      "solu": 1156,
      "tel": 1157,
      "mor": 1158,
      "dishes": 1159,
      "tw": 1160,
      "vo": 1161,
      "kids": 1162,
      "veget": 1163,
      "tacos": 1164,
      "stre": 1165,
      "employe": 1166,
      "inclu": 1167,
      "wish": 1168,
      "pack": 1169,
      "iced": 1170,
      "fine": 1171,
      "drive": 1172,
      "kitch": 1173,
      "fortun": 1174,
      "mil": 1175,
      "ques": 1176,
      "stop": 1177,
      "family": 1178,
      "felt": 1179,
      "shop": 1180,
      "owner": 1181,
      "kitchen": 1182,
      "class": 1183,
      "loved": 1184,
      "onion": 1185,
      "fully": 1186,
      "ita": 1187,
      "bart": 1188,
      "brought": 1189,
      "cook": 1190,
      "pur": 1191,
      "counter": 1192,
      "bartend": 1193,
      "sou": 1194,
      "already": 1195,
      "job": 1196,
      "started": 1197,
      "cked": 1198,
      "proble": 1199,
      "style": 1200,
      "absolu": 1201,
      "plus": 1202,
      "ins": 1203,
      "dessert": 1204,
      "cold": 1205,
      "chinese": 1206,
      "ban": 1207,
      "lish": 1208,
      "often": 1209,
      "month": 1210,
      "warm": 1211,
      "ness": 1212,
      "completely": 1213,
      "win": 1214,
      "gan": 1215,
      "sor": 1216,
      "sed": 1217,
      "enjoyed": 1218,
      "bun": 1219,
      "ken": 1220,
      "white": 1221,
      "rather": 1222,
      "liked": 1223,
      "valley": 1224,
      "wed": 1225,
      "wife": 1226,
      "itting": 1227,
      "da": 1228,
      "rito": 1229,
      "happen": 1230,
      "walk": 1231,
      "tru": 1232,
      "serve": 1233,
      "sch": 1234,
      "average": 1235,
      "flo": 1236,
      "slow": 1237,
      "amb": 1238,
      "regular": 1239,
      "hotel": 1240,
      "ders": 1241,
      "hon": 1242,
      "50": 1243,
      "phone": 1244,
      "bbq": 1245,
      "burrito": 1246,
      "norm": 1247,
      "horrible": 1248,
      "salsa": 1249,
      "card": 1250,
      "mid": 1251,
      "leave": 1252,
      "seat": 1253,
      "medi": 1254,
      "saw": 1255,
      "point": 1256,
      "zen": 1257,
      "cy": 1258,
      "cess": 1259,
      "var": 1260,
      "satur": 1261,
      "impressed": 1262,
      "hun": 1263,
      "chocol": 1264,
      "type": 1265,
      "lie": 1266,
      "comfor": 1267,
      "arrived": 1268,
      "anyone": 1269,
      "street": 1270,
      "sub": 1271,
      "ball": 1272,
      "fair": 1273,
      "atter": 1274,
      "ones": 1275,
      "expen": 1276,
      "event": 1277,
      "bland": 1278,
      "bly": 1279,
      "ices": 1280,
      "extre": 1281,
      "etc": 1282,
      "rolls": 1283,
      "nt": 1284,
      "bac": 1285,
      "tip": 1286,
      "ird": 1287,
      "ended": 1288,
      "chocolate": 1289,
      "lou": 1290,
      "cost": 1291,
      "extreme": 1292,
      "fac": 1293,
      "cris": 1294,
      "ised": 1295,
      "expensive": 1296,
      "sl": 1297,
      "key": 1298,
      "nam": 1299,
      "py": 1300,
      "requ": 1301,
      "ced": 1302,
      "date": 1303,
      "ush": 1304,
      "tem": 1305,
      "dro": 1306,
      "pepp": 1307,
      "member": 1308,
      "wall": 1309,
      "comp": 1310,
      "entire": 1311,
      "wonderful": 1312,
      "dam": 1313,
      "fa": 1314,
      "hope": 1315,
      "box": 1316,
      "lit": 1317,
      "lots": 1318,
      "ative": 1319,
      "mas": 1320,
      "bucks": 1321,
      "mind": 1322,
      "plan": 1323,
      "possi": 1324,
      "certain": 1325,
      "beans": 1326,
      "deli": 1327,
      "bag": 1328,
      "dir": 1329,
      "heal": 1330,
      "port": 1331,
      "please": 1332,
      "igh": 1333,
      "pass": 1334,
      "making": 1335,
      "produ": 1336,
      "looks": 1337,
      "deser": 1338,
      "guys": 1339,
      "dar": 1340,
      "ital": 1341,
      "worst": 1342,
      "needed": 1343,
      "bacon": 1344,
      "tea": 1345,
      "sound": 1346,
      "absolutely": 1347,
      "poor": 1348,
      "cakes": 1349,
      "clu": 1350,
      "amoun": 1351,
      "size": 1352,
      "seriously": 1353,
      "ank": 1354,
      "stick": 1355,
      "fant": 1356,
      "inte": 1357,
      "sad": 1358,
      "gets": 1359,
      "ized": 1360,
      "luck": 1361,
      "pasta": 1362,
      "sc": 1363,
      "ona": 1364,
      "itself": 1365,
      "form": 1366,
      "host": 1367,
      "rooms": 1368,
      "12": 1369,
      "mac": 1370,
      "wings": 1371,
      "beh": 1372,
      "complain": 1373,
      "short": 1374,
      "fortunately": 1375,
      "lad": 1376,
      "ering": 1377,
      "ween": 1378,
      "list": 1379,
      "problem": 1380,
      "behind": 1381,
      "ior": 1382,
      "greas": 1383,
      "spe": 1384,
      "seen": 1385,
      "tot": 1386,
      "four": 1387,
      "sitting": 1388,
      "soon": 1389,
      "butter": 1390,
      "morning": 1391,
      "sme": 1392,
      "sometimes": 1393,
      "brown": 1394,
      "recei": 1395,
      "employees": 1396,
      "extremely": 1397,
      "late": 1398,
      "anyway": 1399,
      "helpful": 1400,
      "saturday": 1401,
      "dress": 1402,
      "pap": 1403,
      "aving": 1404,
      "corn": 1405,
      "vers": 1406,
      "umber": 1407,
      "options": 1408,
      "health": 1409,
      "working": 1410,
      "twice": 1411,
      "fer": 1412,
      "recent": 1413,
      "lla": 1414,
      "typic": 1415,
      "spend": 1416,
      "wel": 1417,
      "belie": 1418,
      "waited": 1419,
      "icul": 1420,
      "understand": 1421,
      "emp": 1422,
      "lin": 1423,
      "att": 1424,
      "loud": 1425,
      "sugg": 1426,
      "partic": 1427,
      "interest": 1428,
      "market": 1429,
      "paid": 1430,
      "totally": 1431,
      "ingred": 1432,
      "vel": 1433,
      "heard": 1434,
      "friday": 1435,
      "between": 1436,
      "honest": 1437,
      "fantastic": 1438,
      "season": 1439,
      "sam": 1440,
      "change": 1441,
      "chef": 1442,
      "pool": 1443,
      "quickly": 1444,
      "appetizer": 1445,
      "amount": 1446,
      "ingredient": 1447,
      "neigh": 1448,
      "neighbor": 1449,
      "early": 1450,
      "amer": 1451,
      "taco": 1452,
      "comfortable": 1453,
      "chang": 1454,
      "rude": 1455,
      "augh": 1456,
      "bott": 1457,
      "exact": 1458,
      "posed": 1459,
      "ged": 1460,
      "hood": 1461,
      "temp": 1462,
      "obv": 1463,
      "game": 1464,
      "others": 1465,
      "charge": 1466,
      "rid": 1467,
      "llow": 1468,
      "ster": 1469,
      "party": 1470,
      "sunday": 1471,
      "life": 1472,
      "lettu": 1473,
      "lettuce": 1474,
      "hip": 1475,
      "airs": 1476,
      "cking": 1477,
      "mess": 1478,
      "11": 1479,
      "bite": 1480,
      "ming": 1481,
      "yo": 1482,
      "gross": 1483,
      "particular": 1484,
      "hear": 1485,
      "sen": 1486,
      "chas": 1487,
      "choice": 1488,
      "ments": 1489,
      "expected": 1490,
      "weekend": 1491,
      "five": 1492,
      "na": 1493,
      "gers": 1494,
      "ler": 1495,
      "toast": 1496,
      "space": 1497,
      "crust": 1498,
      "bed": 1499,
      "hum": 1500,
      "doll": 1501,
      "yummy": 1502,
      "bartender": 1503,
      "unfortunately": 1504,
      "portions": 1505,
      "ariz": 1506,
      "needs": 1507,
      "fix": 1508,
      "spo": 1509,
      "met": 1510,
      "chain": 1511,
      "offered": 1512,
      "hang": 1513,
      "sandwiches": 1514,
      "ran": 1515,
      "remember": 1516,
      "beau": 1517,
      "lis": 1518,
      "weren": 1519,
      "dirty": 1520,
      "eaten": 1521,
      "flavors": 1522,
      "consid": 1523,
      "pes": 1524,
      "dd": 1525,
      "mi": 1526,
      "mall": 1527,
      "toge": 1528,
      "together": 1529,
      "zz": 1530,
      "lim": 1531,
      "trip": 1532,
      "seating": 1533,
      "using": 1534,
      "arizona": 1535,
      "uni": 1536,
      "ides": 1537,
      "ffe": 1538,
      "sorry": 1539,
      "floor": 1540,
      "damn": 1541,
      "ingredients": 1542,
      "hit": 1543,
      "sell": 1544,
      "mom": 1545,
      "black": 1546,
      "rect": 1547,
      "crap": 1548,
      "doing": 1549,
      "saying": 1550,
      "exc": 1551,
      "gone": 1552,
      "rip": 1553,
      "patr": 1554,
      "across": 1555,
      "empty": 1556,
      "non": 1557,
      "cute": 1558,
      "tempe": 1559,
      "ip": 1560,
      "crowd": 1561,
      "hair": 1562,
      "giving": 1563,
      "bath": 1564,
      "seated": 1565,
      "kept": 1566,
      "yeah": 1567,
      "smo": 1568,
      "haps": 1569,
      "margar": 1570,
      "treat": 1571,
      "ture": 1572,
      "simp": 1573,
      "stopped": 1574,
      "grilled": 1575,
      "exactly": 1576,
      "issu": 1577,
      "buffe": 1578,
      "thank": 1579,
      "potatoes": 1580,
      "attentive": 1581,
      "company": 1582,
      "along": 1583,
      "noticed": 1584,
      "avo": 1585,
      "taking": 1586,
      "pared": 1587,
      "uts": 1588,
      "mush": 1589,
      "given": 1590,
      "beauti": 1591,
      "simply": 1592,
      "veg": 1593,
      "sim": 1594,
      "burgers": 1595,
      "downtown": 1596,
      "bby": 1597,
      "ible": 1598,
      "perhaps": 1599,
      "nood": 1600,
      "iance": 1601,
      "feeling": 1602,
      "gro": 1603,
      ".....": 1604,
      "unk": 1605,
      "prov": 1606,
      "rench": 1607,
      "plent": 1608,
      "gry": 1609,
      "walking": 1610,
      "easy": 1611,
      "plenty": 1612,
      "slic": 1613,
      "je": 1614,
      "tv": 1615,
      "school": 1616,
      "blu": 1617,
      "thanks": 1618,
      "highly": 1619,
      "obviously": 1620,
      "yourself": 1621,
      "parent": 1622,
      "idea": 1623,
      "mill": 1624,
      "tex": 1625,
      "ordering": 1626,
      "packed": 1627,
      "ouch": 1628,
      "single": 1629,
      "purchas": 1630,
      "?!": 1631,
      "noon": 1632,
      "except": 1633,
      "believe": 1634,
      "ade": 1635,
      "plates": 1636,
      "saus": 1637,
      "liter": 1638,
      "antly": 1639,
      "ize": 1640,
      "wow": 1641,
      "park": 1642,
      "shopping": 1643,
      "itu": 1644,
      "lady": 1645,
      "paying": 1646,
      "face": 1647,
      "wash": 1648,
      "beers": 1649,
      "ared": 1650,
      "mag": 1651,
      "trad": 1652,
      "overpriced": 1653,
      "servers": 1654,
      "present": 1655,
      "ier": 1656,
      "smell": 1657,
      "french": 1658,
      "ical": 1659,
      "pop": 1660,
      "prof": 1661,
      "count": 1662,
      "talk": 1663,
      "sli": 1664,
      "body": 1665,
      "neighborhood": 1666,
      "choo": 1667,
      "moved": 1668,
      "center": 1669,
      "alo": 1670,
      "explain": 1671,
      "months": 1672,
      "ling": 1673,
      "son": 1674,
      "unless": 1675,
      "certainly": 1676,
      "reasonable": 1677,
      "italian": 1678,
      "40": 1679,
      "nail": 1680,
      "inst": 1681,
      "lemon": 1682,
      "contin": 1683,
      "due": 1684,
      "tment": 1685,
      "orig": 1686,
      "arely": 1687,
      "grab": 1688,
      "surprised": 1689,
      "beautiful": 1690,
      "dou": 1691,
      "fat": 1692,
      "knew": 1693,
      "mention": 1694,
      "blue": 1695,
      "sof": 1696,
      "total": 1697,
      "appre": 1698,
      "mach": 1699,
      "ear": 1700,
      "hate": 1701,
      "conven": 1702,
      "selves": 1703,
      "mixed": 1704,
      "club": 1705,
      "buffet": 1706,
      "fig": 1707,
      "ino": 1708,
      "pet": 1709,
      "portion": 1710,
      "supposed": 1711,
      "case": 1712,
      "literally": 1713,
      "whate": 1714,
      "frozen": 1715,
      "filled": 1716,
      "varie": 1717,
      "simple": 1718,
      "cafe": 1719,
      "evening": 1720,
      "longer": 1721,
      "itional": 1722,
      "origin": 1723,
      "sw": 1724,
      "hold": 1725,
      "terrible": 1726,
      "somewhere": 1727,
      "mmer": 1728,
      "curry": 1729,
      "typical": 1730,
      "whatever": 1731,
      "colle": 1732,
      "fy": 1733,
      "number": 1734,
      "avy": 1735,
      "mart": 1736,
      "sour": 1737,
      "apparent": 1738,
      "avail": 1739,
      "perfectly": 1740,
      "tiny": 1741,
      "attention": 1742,
      "haven": 1743,
      "standing": 1744,
      "hungry": 1745,
      "honestly": 1746,
      "sausage": 1747,
      "sort": 1748,
      "als": 1749,
      "note": 1750,
      "interesting": 1751,
      "west": 1752,
      "ado": 1753,
      "based": 1754,
      "piece": 1755,
      "truly": 1756,
      "slight": 1757,
      "thick": 1758,
      "ada": 1759,
      "garlic": 1760,
      "received": 1761,
      "choose": 1762,
      "aren": 1763,
      "says": 1764,
      "awful": 1765,
      "apparently": 1766,
      "eye": 1767,
      "har": 1768,
      "wer": 1769,
      "wise": 1770,
      "cont": 1771,
      "mostly": 1772,
      "glad": 1773,
      "ister": 1774,
      "weird": 1775,
      "immedi": 1776,
      "pepper": 1777,
      "cap": 1778,
      "land": 1779,
      "youn": 1780,
      "spor": 1781,
      "sn": 1782,
      "afternoon": 1783,
      "flat": 1784,
      "chili": 1785,
      "appreci": 1786,
      "ond": 1787,
      "satis": 1788,
      "occas": 1789,
      "dark": 1790,
      "ben": 1791,
      "blo": 1792,
      "office": 1793,
      "tomatoes": 1794,
      "paper": 1795,
      "cock": 1796,
      "istent": 1797,
      "child": 1798,
      "wrap": 1799,
      "die": 1800,
      "mou": 1801,
      "appro": 1802,
      "world": 1803,
      "finished": 1804,
      "greasy": 1805,
      "bir": 1806,
      "spin": 1807,
      "dle": 1808,
      "spl": 1809,
      "asian": 1810,
      "joint": 1811,
      "miss": 1812,
      "orange": 1813,
      "move": 1814,
      "hands": 1815,
      "ris": 1816,
      "ana": 1817,
      "gies": 1818,
      "available": 1819,
      "bab": 1820,
      "ini": 1821,
      "stra": 1822,
      "spent": 1823,
      "azy": 1824,
      "standard": 1825,
      "color": 1826,
      "eggs": 1827,
      "crispy": 1828,
      "recently": 1829,
      "om": 1830,
      "mine": 1831,
      "manage": 1832,
      "medio": 1833,
      "meals": 1834,
      "suggest": 1835,
      "kno": 1836,
      "entre": 1837,
      "ground": 1838,
      "flavorful": 1839,
      "choices": 1840,
      "specials": 1841,
      "spring": 1842,
      "possible": 1843,
      "hostess": 1844,
      "excited": 1845,
      "occasion": 1846,
      "conf": 1847,
      "normally": 1848,
      "train": 1849,
      "ppings": 1850,
      "variety": 1851,
      "fall": 1852,
      "ging": 1853,
      "lly": 1854,
      "vi": 1855,
      "post": 1856,
      "stores": 1857,
      "middle": 1858,
      "soft": 1859,
      "straight": 1860,
      "ni": 1861,
      "round": 1862,
      "itas": 1863,
      "sea": 1864,
      "prefer": 1865,
      "berry": 1866,
      "cash": 1867,
      "torti": 1868,
      "american": 1869,
      "mediocre": 1870,
      "arian": 1871,
      "plant": 1872,
      "pieces": 1873,
      "thinking": 1874,
      "bage": 1875,
      "ature": 1876,
      "level": 1877,
      "!!!!": 1878,
      "watching": 1879,
      "south": 1880,
      ":)": 1881,
      "iting": 1882,
      "chic": 1883,
      "iled": 1884,
      "scre": 1885,
      "god": 1886,
      "cannot": 1887,
      "worse": 1888,
      "taken": 1889,
      "city": 1890,
      "den": 1891,
      "gust": 1892,
      "tap": 1893,
      "assu": 1894,
      "orders": 1895,
      "noy": 1896,
      "word": 1897,
      "100": 1898,
      "cocktail": 1899,
      "foo": 1900,
      "foods": 1901,
      "ele": 1902,
      "cept": 1903,
      "kinda": 1904,
      "entrees": 1905,
      "ingly": 1906,
      "ries": 1907,
      "serving": 1908,
      "ggie": 1909,
      "spec": 1910,
      "toppings": 1911,
      "tuna": 1912,
      "ities": 1913,
      "bottle": 1914,
      "coup": 1915,
      "rock": 1916,
      "closed": 1917,
      "book": 1918,
      "onions": 1919,
      "immediately": 1920,
      "annoy": 1921,
      "pol": 1922,
      "grocer": 1923,
      "cred": 1924,
      "alone": 1925,
      "forward": 1926,
      "desc": 1927,
      "consistent": 1928,
      "grill": 1929,
      "vegetarian": 1930,
      "ied": 1931,
      "dow": 1932,
      "99": 1933,
      "bal": 1934,
      "none": 1935,
      "bul": 1936,
      "mole": 1937,
      "value": 1938,
      "ambiance": 1939,
      "apo": 1940,
      "bi": 1941,
      "gin": 1942,
      "meet": 1943,
      "chil": 1944,
      "fru": 1945,
      "boyfriend": 1946,
      "ping": 1947,
      "touch": 1948,
      "chance": 1949,
      "salads": 1950,
      "unique": 1951,
      "ild": 1952,
      "mer": 1953,
      "ession": 1954,
      "hell": 1955,
      "proper": 1956,
      "located": 1957,
      "tender": 1958,
      "ware": 1959,
      "build": 1960,
      "whel": 1961,
      "abo": 1962,
      "turned": 1963,
      "veggie": 1964,
      "estab": 1965,
      "equ": 1966,
      "section": 1967,
      "item": 1968,
      "fairly": 1969,
      "mouth": 1970,
      "movie": 1971,
      "authen": 1972,
      "pricey": 1973,
      "basically": 1974,
      "dressing": 1975,
      "management": 1976,
      "ence": 1977,
      "anywhere": 1978,
      "tastes": 1979,
      "incred": 1980,
      "sports": 1981,
      "**": 1982,
      "aca": 1983,
      "nearly": 1984,
      "north": 1985,
      "lax": 1986,
      "25": 1987,
      "flight": 1988,
      "window": 1989,
      "happened": 1990,
      "authentic": 1991,
      "\",": 1992,
      "limited": 1993,
      "veggies": 1994,
      "aking": 1995,
      "fit": 1996,
      "allow": 1997,
      "usual": 1998,
      "cted": 1999,
      "roast": 2000,
      "write": 2001,
      "chand": 2002,
      "ters": 2003,
      "bought": 2004,
      "organ": 2005,
      "ountain": 2006,
      "takes": 2007,
      "correct": 2008,
      "fry": 2009,
      "squ": 2010,
      "ery": 2011,
      "within": 2012,
      "salt": 2013,
      "desert": 2014,
      "establish": 2015,
      "daugh": 2016,
      "itive": 2017,
      "forgot": 2018,
      "cove": 2019,
      "goes": 2020,
      "safe": 2021,
      "apolo": 2022,
      "bean": 2023,
      "corner": 2024,
      "including": 2025,
      "aring": 2026,
      "placed": 2027,
      "speak": 2028,
      "ls": 2029,
      "asking": 2030,
      "slightly": 2031,
      "barely": 2032,
      "fur": 2033,
      "noodles": 2034,
      "45": 2035,
      "oil": 2036,
      "heat": 2037,
      "salmon": 2038,
      "disgust": 2039,
      "personal": 2040,
      "talking": 2041,
      "fail": 2042,
      "pain": 2043,
      "upon": 2044,
      "shot": 2045,
      "owners": 2046,
      "considering": 2047,
      "covered": 2048,
      "remin": 2049,
      "relax": 2050,
      "iron": 2051,
      "apple": 2052,
      "appetizers": 2053,
      "interior": 2054,
      "fre": 2055,
      "lay": 2056,
      "wood": 2057,
      "salty": 2058,
      "viet": 2059,
      "mic": 2060,
      "icure": 2061,
      "summer": 2062,
      "crab": 2063,
      "desp": 2064,
      "turkey": 2065,
      "weeks": 2066,
      "pleasant": 2067,
      "birth": 2068,
      "hy": 2069,
      "compl": 2070,
      "seeing": 2071,
      "bottom": 2072,
      "healthy": 2073,
      "above": 2074,
      "daughter": 2075,
      ".\"": 2076,
      "ined": 2077,
      "inking": 2078,
      "outdoor": 2079,
      "tasting": 2080,
      "iculous": 2081,
      "yog": 2082,
      "issue": 2083,
      "ath": 2084,
      "aven": 2085,
      "gest": 2086,
      "beat": 2087,
      "picked": 2088,
      "tonight": 2089,
      "east": 2090,
      "tern": 2091,
      "opened": 2092,
      "playing": 2093,
      "scr": 2094,
      "rence": 2095,
      "workers": 2096,
      "bell": 2097,
      "itude": 2098,
      "traditional": 2099,
      "airport": 2100,
      "filling": 2101,
      "fire": 2102,
      "hh": 2103,
      "gel": 2104,
      "dip": 2105,
      "glasses": 2106,
      "easily": 2107,
      "profession": 2108,
      "credit": 2109,
      "dent": 2110,
      "lear": 2111,
      "cover": 2112,
      "adv": 2113,
      "prepared": 2114,
      "grand": 2115,
      "added": 2116,
      "avoid": 2117,
      "agree": 2118,
      "ption": 2119,
      "sides": 2120,
      "crowded": 2121,
      "ridiculous": 2122,
      "frequ": 2123,
      "tta": 2124,
      "road": 2125,
      "enter": 2126,
      "ulti": 2127,
      "reading": 2128,
      "bunch": 2129,
      "slice": 2130,
      "matter": 2131,
      "rush": 2132,
      "means": 2133,
      "entree": 2134,
      "amp": 2135,
      "import": 2136,
      "normal": 2137,
      "vietnam": 2138,
      "pita": 2139,
      "rating": 2140,
      "ses": 2141,
      "ites": 2142,
      "webs": 2143,
      "original": 2144,
      "acamole": 2145,
      "frequent": 2146,
      "inion": 2147,
      "ics": 2148,
      "ribs": 2149,
      "shit": 2150,
      "guacamole": 2151,
      "ggy": 2152,
      "running": 2153,
      "grocery": 2154,
      "dan": 2155,
      "honey": 2156,
      "lid": 2157,
      "illa": 2158,
      "crazy": 2159,
      "option": 2160,
      "ze": 2161,
      "menus": 2162,
      "opinion": 2163,
      "ience": 2164,
      "disappointment": 2165,
      "recommended": 2166,
      "complete": 2167,
      "gyro": 2168,
      "changed": 2169,
      "young": 2170,
      "ident": 2171,
      "medium": 2172,
      "birthday": 2173,
      "fli": 2174,
      "yu": 2175,
      "atu": 2176,
      "ham": 2177,
      "lost": 2178,
      "board": 2179,
      "spinach": 2180,
      "chairs": 2181,
      "deep": 2182,
      "drinking": 2183,
      "brand": 2184,
      "vegetables": 2185,
      "website": 2186,
      "kill": 2187,
      "ants": 2188,
      "urt": 2189,
      "ledge": 2190,
      "patrons": 2191,
      "san": 2192,
      "esday": 2193,
      "ties": 2194,
      "bathroom": 2195,
      "cts": 2196,
      "ug": 2197,
      "girls": 2198,
      "sick": 2199,
      "ches": 2200,
      "disappointing": 2201,
      "pancakes": 2202,
      "foot": 2203,
      "living": 2204,
      "somewhat": 2205,
      "combo": 2206,
      "showed": 2207,
      "???": 2208,
      "ranch": 2209,
      "baby": 2210,
      "pon": 2211,
      "worked": 2212,
      "fol": 2213,
      "coupon": 2214,
      "bon": 2215,
      "impres": 2216,
      "tons": 2217,
      "moder": 2218,
      "simil": 2219,
      "donuts": 2220,
      "positive": 2221,
      "baked": 2222,
      "sampl": 2223,
      "bri": 2224,
      "bars": 2225,
      "fil": 2226,
      "ired": 2227,
      "jor": 2228,
      "pair": 2229,
      "lived": 2230,
      "sales": 2231,
      "diff": 2232,
      "charged": 2233,
      "despite": 2234,
      "nic": 2235,
      "arch": 2236,
      "forget": 2237,
      "ames": 2238,
      "craving": 2239,
      "sauces": 2240,
      "strange": 2241,
      "convenient": 2242,
      "soggy": 2243,
      "heart": 2244,
      "rib": 2245,
      "exp": 2246,
      "joe": 2247,
      "double": 2248,
      "bers": 2249,
      "flow": 2250,
      "reserv": 2251,
      "oooo": 2252,
      "trave": 2253,
      "ashed": 2254,
      "establishment": 2255,
      "professional": 2256,
      "leg": 2257,
      "expecting": 2258,
      "strong": 2259,
      "generally": 2260,
      "chicago": 2261,
      "difficul": 2262,
      "!)": 2263,
      "iv": 2264,
      "ator": 2265,
      "strip": 2266,
      "desk": 2267,
      "delivery": 2268,
      "chandler": 2269,
      "vietnamese": 2270,
      "mit": 2271,
      "ute": 2272,
      "stuffed": 2273,
      "fancy": 2274,
      "seats": 2275,
      "chat": 2276,
      "neg": 2277,
      "net": 2278,
      "otherwise": 2279,
      "dont": 2280,
      "college": 2281,
      "rich": 2282,
      "iss": 2283,
      "sugar": 2284,
      "affl": 2285,
      "process": 2286,
      "blood": 2287,
      "desig": 2288,
      "clearly": 2289,
      "attitude": 2290,
      "slices": 2291,
      "sas": 2292,
      "tour": 2293,
      "refill": 2294,
      "soda": 2295,
      "solid": 2296,
      "pean": 2297,
      "cul": 2298,
      "attemp": 2299,
      "leaving": 2300,
      "tech": 2301,
      "works": 2302,
      "indian": 2303,
      "carry": 2304,
      "centr": 2305,
      "pulled": 2306,
      "dollar": 2307,
      "bother": 2308,
      "cli": 2309,
      "rel": 2310,
      "major": 2311,
      "concept": 2312,
      "ility": 2313,
      "brunch": 2314,
      "lovely": 2315,
      "share": 2316,
      "shared": 2317,
      "clear": 2318,
      "homemade": 2319,
      "surprise": 2320,
      "fruit": 2321,
      "ko": 2322,
      "walls": 2323,
      "lucky": 2324,
      "listen": 2325,
      "ane": 2326,
      "engl": 2327,
      "lee": 2328,
      "hey": 2329,
      "sil": 2330,
      "apart": 2331,
      "sized": 2332,
      "building": 2333,
      "ather": 2334,
      "dge": 2335,
      "rup": 2336,
      "zy": 2337,
      "throw": 2338,
      "inv": 2339,
      "accom": 2340,
      "buff": 2341,
      "true": 2342,
      "woman": 2343,
      "visiting": 2344,
      "possibly": 2345,
      "folks": 2346,
      "inform": 2347,
      "cep": 2348,
      "checked": 2349,
      "forever": 2350,
      "mary": 2351,
      "known": 2352,
      "ahead": 2353,
      "heavy": 2354,
      "actual": 2355,
      "pizzas": 2356,
      "booth": 2357,
      "pal": 2358,
      "tered": 2359,
      "concer": 2360,
      "mistake": 2361,
      "vibe": 2362,
      "roasted": 2363,
      "difficult": 2364,
      "eth": 2365,
      "fied": 2366,
      "general": 2367,
      "question": 2368,
      "dollars": 2369,
      "ges": 2370,
      "vin": 2371,
      "kee": 2372,
      "classes": 2373,
      "disgusting": 2374,
      "ky": 2375,
      "mc": 2376,
      "mood": 2377,
      "eno": 2378,
      "adas": 2379,
      "sum": 2380,
      "ages": 2381,
      "tood": 2382,
      "minute": 2383,
      "carne": 2384,
      "casual": 2385,
      "elsewhere": 2386,
      "dogs": 2387,
      "lines": 2388,
      "seafood": 2389,
      "bulous": 2390,
      "similar": 2391,
      "english": 2392,
      "bster": 2393,
      "fly": 2394,
      "ict": 2395,
      "meh": 2396,
      "mel": 2397,
      "teen": 2398,
      "comb": 2399,
      "broth": 2400,
      "jer": 2401,
      "rot": 2402,
      "somehow": 2403,
      "aves": 2404,
      "themselves": 2405,
      "impro": 2406,
      "milk": 2407,
      "peppers": 2408,
      ".)": 2409,
      "18": 2410,
      "gold": 2411,
      "const": 2412,
      "prev": 2413,
      "crunch": 2414,
      "returned": 2415,
      "stayed": 2416,
      "greeted": 2417,
      "fabulous": 2418,
      "margaritas": 2419,
      "ker": 2420,
      "lar": 2421,
      "pad": 2422,
      "ured": 2423,
      "vegan": 2424,
      "lives": 2425,
      "dozen": 2426,
      "chees": 2427,
      "tures": 2428,
      "lacking": 2429,
      "daily": 2430,
      "seasoned": 2431,
      "screen": 2432,
      "kick": 2433,
      "env": 2434,
      "ched": 2435,
      "kets": 2436,
      "crack": 2437,
      "personally": 2438,
      "omelet": 2439,
      "cali": 2440,
      "included": 2441,
      "massa": 2442,
      "machine": 2443,
      "buffalo": 2444,
      "cand": 2445,
      "ibly": 2446,
      "laugh": 2447,
      "ram": 2448,
      "ref": 2449,
      "enchil": 2450,
      "bud": 2451,
      "split": 2452,
      "training": 2453,
      "nap": 2454,
      "anim": 2455,
      "tofu": 2456,
      "stairs": 2457,
      "modern": 2458,
      "ctor": 2459,
      "ka": 2460,
      "sent": 2461,
      "tough": 2462,
      "ination": 2463,
      "oni": 2464,
      "accep": 2465,
      "cashi": 2466,
      "sliders": 2467,
      "mother": 2468,
      "stem": 2469,
      "blah": 2470,
      "gym": 2471,
      "bartenders": 2472,
      "kins": 2473,
      "load": 2474,
      "ample": 2475,
      "smoo": 2476,
      "presentation": 2477,
      "important": 2478,
      "brus": 2479,
      "visited": 2480,
      "margarita": 2481,
      "children": 2482,
      "olive": 2483,
      "rare": 2484,
      "attend": 2485,
      "asu": 2486,
      "ield": 2487,
      "shred": 2488,
      "steam": 2489,
      "potle": 2490,
      "chipotle": 2491,
      "meats": 2492,
      "addition": 2493,
      "basil": 2494,
      "cial": 2495,
      "straw": 2496,
      "24": 2497,
      "fing": 2498,
      "ial": 2499,
      "imag": 2500,
      "ki": 2501,
      "station": 2502,
      "dead": 2503,
      "quie": 2504,
      "nights": 2505,
      "higher": 2506,
      "wards": 2507,
      "nearby": 2508,
      "crisp": 2509,
      "hummus": 2510,
      "appreciate": 2511,
      "incredibly": 2512,
      "van": 2513,
      "convers": 2514,
      "mark": 2515,
      "frank": 2516,
      "expectations": 2517,
      "tortilla": 2518,
      "ugh": 2519,
      "inde": 2520,
      "amar": 2521,
      "eless": 2522,
      "......": 2523,
      "cleaning": 2524,
      "sense": 2525,
      "texture": 2526,
      "smooth": 2527,
      "rate": 2528,
      "ats": 2529,
      "search": 2530,
      "irt": 2531,
      "terday": 2532,
      "anymore": 2533,
      "spice": 2534,
      "overly": 2535,
      "overwhel": 2536,
      "mini": 2537,
      "knows": 2538,
      "duck": 2539,
      "shame": 2540,
      "yesterday": 2541,
      "greek": 2542,
      "product": 2543,
      "particularly": 2544,
      "hn": 2545,
      "zel": 2546,
      "cher": 2547,
      "wild": 2548,
      "trust": 2549,
      "200": 2550,
      "consis": 2551,
      "vol": 2552,
      "products": 2553,
      "bes": 2554,
      "fau": 2555,
      "mate": 2556,
      "mountain": 2557,
      "driving": 2558,
      "central": 2559,
      "begin": 2560,
      "ung": 2561,
      "gotten": 2562,
      "follow": 2563,
      "biggest": 2564,
      "starbucks": 2565,
      "returning": 2566,
      "current": 2567,
      "explained": 2568,
      "nails": 2569,
      "games": 2570,
      "chile": 2571,
      "lier": 2572,
      "pros": 2573,
      "igno": 2574,
      "system": 2575,
      "banana": 2576,
      "compli": 2577,
      "eyes": 2578,
      "send": 2579,
      "detail": 2580,
      "hole": 2581,
      "suc": 2582,
      "opted": 2583,
      "treated": 2584,
      "register": 2585,
      "cookie": 2586,
      "scen": 2587,
      "entertain": 2588,
      "lamb": 2589,
      "ara": 2590,
      "likely": 2591,
      "purchase": 2592,
      "ironment": 2593,
      "environment": 2594,
      "shredded": 2595,
      "amy": 2596,
      "jam": 2597,
      "yor": 2598,
      "ors": 2599,
      "ests": 2600,
      "compar": 2601,
      "aged": 2602,
      "experienced": 2603,
      "exception": 2604,
      "realize": 2605,
      "cups": 2606,
      "cab": 2607,
      "ered": 2608,
      "theater": 2609,
      "ero": 2610,
      "iche": 2611,
      "formed": 2612,
      "sucks": 2613,
      "contain": 2614,
      "deals": 2615,
      "surpris": 2616,
      "yogurt": 2617,
      "60": 2618,
      "oz": 2619,
      "asada": 2620,
      "pract": 2621,
      "avoc": 2622,
      "pricing": 2623,
      "spots": 2624,
      "($": 2625,
      "gor": 2626,
      "odd": 2627,
      "state": 2628,
      "bey": 2629,
      "putting": 2630,
      "arrive": 2631,
      "wanting": 2632,
      "bled": 2633,
      "opening": 2634,
      "mmmm": 2635,
      "cupcakes": 2636,
      "annoying": 2637,
      "peanut": 2638,
      "beyond": 2639,
      "dim": 2640,
      "male": 2641,
      "tos": 2642,
      "forn": 2643,
      "ilt": 2644,
      "mayo": 2645,
      "smaller": 2646,
      "pull": 2647,
      "memor": 2648,
      "drop": 2649,
      "luckily": 2650,
      "californ": 2651,
      "cashier": 2652,
      "ico": 2653,
      "depart": 2654,
      "plastic": 2655,
      "outstanding": 2656,
      "terri": 2657,
      "smile": 2658,
      "breast": 2659,
      "affles": 2660,
      "80": 2661,
      "hoo": 2662,
      "repe": 2663,
      "tory": 2664,
      "admit": 2665,
      "lobster": 2666,
      "mozz": 2667,
      "mail": 2668,
      "save": 2669,
      "fran": 2670,
      "setting": 2671,
      "request": 2672,
      "dough": 2673,
      "waffles": 2674,
      "heaven": 2675,
      "sale": 2676,
      "support": 2677,
      "helped": 2678,
      "consider": 2679,
      "patron": 2680,
      "cocktails": 2681,
      "massage": 2682,
      "quiet": 2683,
      "90": 2684,
      "catch": 2685,
      "gas": 2686,
      "nut": 2687,
      "rand": 2688,
      "thus": 2689,
      "bus": 2690,
      "delive": 2691,
      "adul": 2692,
      "outs": 2693,
      "notice": 2694,
      "pose": 2695,
      "polish": 2696,
      "app": 2697,
      "resort": 2698,
      "chew": 2699,
      "ager": 2700,
      "tasteless": 2701,
      "john": 2702,
      "fucking": 2703,
      "reasonably": 2704,
      "descri": 2705,
      "dance": 2706,
      "eff": 2707,
      "fic": 2708,
      "mous": 2709,
      "raw": 2710,
      "ison": 2711,
      "respon": 2712,
      "overcooked": 2713,
      "bites": 2714,
      "employee": 2715,
      "continue": 2716,
      "client": 2717,
      "gif": 2718,
      "tle": 2719,
      "refresh": 2720,
      "eded": 2721,
      "become": 2722,
      "willing": 2723,
      "flu": 2724,
      "didnt": 2725,
      "locations": 2726,
      "funny": 2727,
      "groupon": 2728,
      "generous": 2729,
      "avocado": 2730,
      "california": 2731,
      "14": 2732,
      "bak": 2733,
      "gal": 2734,
      "swi": 2735,
      "alco": 2736,
      "waste": 2737,
      "tial": 2738,
      "los": 2739,
      "loves": 2740,
      "uten": 2741,
      "flavorless": 2742,
      "missing": 2743,
      "cheaper": 2744,
      "grease": 2745,
      "mentioned": 2746,
      "specif": 2747,
      "cing": 2748,
      "fare": 2749,
      "rely": 2750,
      "venue": 2751,
      "sake": 2752,
      "sliced": 2753,
      "contact": 2754,
      "tren": 2755,
      "chill": 2756,
      "excu": 2757,
      "feels": 2758,
      "patient": 2759,
      "realized": 2760,
      "prior": 2761,
      "hanging": 2762,
      "mushrooms": 2763,
      "bloody": 2764,
      "design": 2765,
      "excuse": 2766,
      "lat": 2767,
      "loun": 2768,
      "lame": 2769,
      "mashed": 2770,
      "ring": 2771,
      "vac": 2772,
      "online": 2773,
      "dos": 2774,
      "ourselves": 2775,
      "hill": 2776,
      "hubby": 2777,
      "favorites": 2778,
      "questions": 2779,
      "dest": 2780,
      "remain": 2781,
      "ride": 2782,
      "peak": 2783,
      "serious": 2784,
      "decide": 2785,
      "cooking": 2786,
      "chines": 2787,
      "apolog": 2788,
      "imagine": 2789,
      "cir": 2790,
      "ee": 2791,
      "ili": 2792,
      "sle": 2793,
      "tes": 2794,
      "tar": 2795,
      "yak": 2796,
      "third": 2797,
      "icy": 2798,
      "feet": 2799,
      "checking": 2800,
      "knowledge": 2801,
      "cupcake": 2802,
      "scale": 2803,
      "delivered": 2804,
      "stood": 2805,
      "alright": 2806,
      "unity": 2807,
      "asty": 2808,
      "chetta": 2809,
      "promp": 2810,
      "step": 2811,
      "laid": 2812,
      "throughout": 2813,
      "greens": 2814,
      "sugges": 2815,
      "continu": 2816,
      "alcoho": 2817,
      "hur": 2818,
      "range": 2819,
      "thri": 2820,
      "rew": 2821,
      "soy": 2822,
      "trans": 2823,
      "spa": 2824,
      "cuis": 2825,
      "cookies": 2826,
      "sadly": 2827,
      "weekends": 2828,
      "information": 2829,
      "department": 2830,
      "aa": 2831,
      "cat": 2832,
      "jap": 2833,
      "mad": 2834,
      "informed": 2835,
      "del": 2836,
      "wide": 2837,
      "machines": 2838,
      "compared": 2839,
      "join": 2840,
      "shoes": 2841,
      "appeal": 2842,
      "appeared": 2843,
      "publ": 2844,
      "welcome": 2845,
      "13": 2846,
      "blow": 2847,
      "cant": 2848,
      "grow": 2849,
      "lf": 2850,
      "nat": 2851,
      "nit": 2852,
      "scal": 2853,
      "tam": 2854,
      "thy": 2855,
      "chr": 2856,
      "separ": 2857,
      "update": 2858,
      "bom": 2859,
      "hash": 2860,
      "guests": 2861,
      "base": 2862,
      "basic": 2863,
      "japan": 2864,
      "ire": 2865,
      "jack": 2866,
      "pin": 2867,
      "pend": 2868,
      "ys": 2869,
      "resu": 2870,
      "liqu": 2871,
      "arella": 2872,
      "hadn": 2873,
      "thered": 2874,
      "gret": 2875,
      "suck": 2876,
      "ilet": 2877,
      "closer": 2878,
      "dire": 2879,
      "hardly": 2880,
      "classic": 2881,
      "hopefully": 2882,
      "complaint": 2883,
      "figured": 2884,
      "yuck": 2885,
      "cro": 2886,
      "dad": 2887,
      "dive": 2888,
      "secur": 2889,
      "vert": 2890,
      "ford": 2891,
      "irr": 2892,
      "comment": 2893,
      "tract": 2894,
      "aft": 2895,
      "pect": 2896,
      "chose": 2897,
      "finding": 2898,
      "quee": 2899,
      "bags": 2900,
      "selling": 2901,
      "satisfied": 2902,
      "negative": 2903,
      "multi": 2904,
      "remo": 2905,
      "sting": 2906,
      "stri": 2907,
      "teach": 2908,
      "consu": 2909,
      "decis": 2910,
      "creamy": 2911,
      "bigger": 2912,
      "lights": 2913,
      "mushroom": 2914,
      "consistently": 2915,
      "crunchy": 2916,
      "cuisine": 2917,
      "security": 2918,
      "16": 2919,
      "oven": 2920,
      "scream": 2921,
      "sister": 2922,
      "zed": 2923,
      "het": 2924,
      "platter": 2925,
      "termin": 2926,
      "trail": 2927,
      "offers": 2928,
      "experiences": 2929,
      "handed": 2930,
      "china": 2931,
      "members": 2932,
      "eventually": 2933,
      "polite": 2934,
      "19": 2935,
      "dated": 2936,
      "num": 2937,
      "uc": 2938,
      "below": 2939,
      "usion": 2940,
      "yellow": 2941,
      "skin": 2942,
      "skip": 2943,
      "issues": 2944,
      "earlier": 2945,
      "napkins": 2946,
      "conversation": 2947,
      "compliment": 2948,
      "refreshing": 2949,
      "70": 2950,
      "jal": 2951,
      "edible": 2952,
      "llas": 2953,
      "hosp": 2954,
      "services": 2955,
      "needless": 2956,
      "juice": 2957,
      "typically": 2958,
      "welcoming": 2959,
      "properly": 2960,
      "impressive": 2961,
      "enchiladas": 2962,
      "fault": 2963,
      "effic": 2964,
      "gour": 2965,
      "yard": 2966,
      "aside": 2967,
      "action": 2968,
      "account": 2969,
      "cocon": 2970,
      "hoping": 2971,
      "compet": 2972,
      "saving": 2973,
      "mins": 2974,
      "everywhere": 2975,
      "knowing": 2976,
      "picture": 2977,
      "pictures": 2978,
      "famous": 2979,
      "various": 2980,
      "gelato": 2981,
      "express": 2982,
      "mozzarella": 2983,
      "random": 2984,
      "dig": 2985,
      "fed": 2986,
      "len": 2987,
      "nasty": 2988,
      "ists": 2989,
      "chris": 2990,
      "women": 2991,
      "monday": 2992,
      "regard": 2993,
      "eggplant": 2994,
      "buying": 2995,
      "miles": 2996,
      "passed": 2997,
      "produce": 2998,
      "york": 2999,
      "fut": 3000,
      "mal": 3001,
      "olives": 3002,
      "version": 3003,
      "thern": 3004,
      "team": 3005,
      "ura": 3006,
      "dist": 3007,
      "answer": 3008,
      "cuc": 3009,
      "student": 3010,
      "broken": 3011,
      "deliver": 3012,
      "prompt": 3013,
      "field": 3014,
      "nuts": 3015,
      "theat": 3016,
      "init": 3017,
      "ano": 3018,
      "sold": 3019,
      "urs": 3020,
      "salon": 3021,
      "cry": 3022,
      "girlfriend": 3023,
      "provide": 3024,
      "popular": 3025,
      "coconut": 3026,
      "pas": 3027,
      "tired": 3028,
      "lol": 3029,
      "notch": 3030,
      "doctor": 3031,
      "manicure": 3032,
      "owned": 3033,
      "writing": 3034,
      "pleased": 3035,
      "smoked": 3036,
      "provided": 3037,
      "satisfy": 3038,
      "accommo": 3039,
      "ignored": 3040,
      "leaves": 3041,
      "delight": 3042,
      "cozy": 3043,
      "adi": 3044,
      "acknow": 3045,
      "drunk": 3046,
      "arden": 3047,
      "shops": 3048,
      "paren": 3049,
      "situ": 3050,
      "staying": 3051,
      "wines": 3052,
      "sample": 3053,
      "silver": 3054,
      "bruschetta": 3055,
      "public": 3056,
      "decision": 3057,
      "gourmet": 3058,
      "future": 3059,
      "bf": 3060,
      "gon": 3061,
      "afford": 3062,
      "gravy": 3063,
      "discount": 3064,
      "cheesecake": 3065,
      "corpor": 3066,
      "books": 3067,
      "balls": 3068,
      "appropri": 3069,
      "travel": 3070,
      "attempt": 3071,
      "improve": 3072,
      "gift": 3073,
      "japanese": 3074,
      "bits": 3075,
      "fight": 3076,
      "rings": 3077,
      "icated": 3078,
      "lets": 3079,
      "sex": 3080,
      "moving": 3081,
      "acks": 3082,
      "tax": 3083,
      "grad": 3084,
      "stomach": 3085,
      "pointed": 3086,
      "cents": 3087,
      "appear": 3088,
      "pedicure": 3089,
      "desserts": 3090,
      "tortillas": 3091,
      "vanilla": 3092,
      "lounge": 3093,
      "christ": 3094,
      "rat": 3095,
      "topped": 3096,
      "uncomfortable": 3097,
      "six": 3098,
      "promis": 3099,
      "story": 3100,
      "address": 3101,
      "sprink": 3102,
      "wedn": 3103,
      "tempura": 3104,
      "previous": 3105,
      "rd": 3106,
      "tag": 3107,
      "yal": 3108,
      "cell": 3109,
      "pee": 3110,
      "tray": 3111,
      "anyways": 3112,
      "words": 3113,
      "mint": 3114,
      "played": 3115,
      "vegetable": 3116,
      "dropped": 3117,
      "sounds": 3118,
      "spending": 3119,
      "natur": 3120,
      "parents": 3121,
      "35": 3122,
      "tan": 3123,
      "wes": 3124,
      "anda": 3125,
      "advert": 3126,
      "moist": 3127,
      "aster": 3128,
      "greet": 3129,
      "drag": 3130,
      "gives": 3131,
      "whether": 3132,
      "effor": 3133,
      "mustard": 3134,
      "burritos": 3135,
      "martini": 3136,
      "micro": 3137,
      "trendy": 3138,
      "jalap": 3139,
      "'.": 3140,
      "gent": 3141,
      "rang": 3142,
      "shi": 3143,
      "squee": 3144,
      "thor": 3145,
      "lead": 3146,
      "greed": 3147,
      "sucked": 3148,
      "nicely": 3149,
      "direct": 3150,
      "tuesday": 3151,
      "subst": 3152,
      "bakery": 3153,
      "ot": 3154,
      "wind": 3155,
      "xim": 3156,
      "vet": 3157,
      "som": 3158,
      "iding": 3159,
      "goodness": 3160,
      "serves": 3161,
      "joke": 3162,
      "brew": 3163,
      "doors": 3164,
      "telling": 3165,
      "keeping": 3166,
      "alcohol": 3167,
      "95": 3168,
      "bing": 3169,
      "garden": 3170,
      "reach": 3171,
      "stru": 3172,
      "lebr": 3173,
      "wear": 3174,
      "weak": 3175,
      "delish": 3176,
      "wants": 3177,
      "dude": 3178,
      "lighting": 3179,
      "country": 3180,
      "picky": 3181,
      "juicy": 3182,
      "quesad": 3183,
      "tvs": 3184,
      "organic": 3185,
      "success": 3186,
      "surprisingly": 3187,
      "scallo": 3188,
      "camp": 3189,
      "oy": 3190,
      "inten": 3191,
      "ordin": 3192,
      "weather": 3193,
      "tips": 3194,
      "celebr": 3195,
      "feed": 3196,
      "wered": 3197,
      "shell": 3198,
      "german": 3199,
      "calamar": 3200,
      "problems": 3201,
      "fake": 3202,
      "bottles": 3203,
      "noodle": 3204,
      "efficient": 3205,
      "calamari": 3206,
      "fash": 3207,
      "hint": 3208,
      "rain": 3209,
      "chop": 3210,
      "quiche": 3211,
      "affic": 3212,
      "shouldn": 3213,
      "older": 3214,
      "internet": 3215,
      "yelpers": 3216,
      "drove": 3217,
      "sticky": 3218,
      "learn": 3219,
      "bright": 3220,
      "hall": 3221,
      "rated": 3222,
      "vine": 3223,
      "iness": 3224,
      "neither": 3225,
      "poten": 3226,
      "umbs": 3227,
      "bris": 3228,
      "pretzel": 3229,
      "indiv": 3230,
      "points": 3231,
      "enjoying": 3232,
      "missed": 3233,
      "brother": 3234,
      "shake": 3235,
      "condition": 3236,
      "bathrooms": 3237,
      "switch": 3238,
      "block": 3239,
      "reservation": 3240,
      "multiple": 3241,
      "fashion": 3242,
      "individ": 3243,
      "awhile": 3244,
      "boun": 3245,
      "bian": 3246,
      "pure": 3247,
      "rav": 3248,
      "ala": 3249,
      "visits": 3250,
      "difference": 3251,
      "selections": 3252,
      "factor": 3253,
      "crappy": 3254,
      "purchased": 3255,
      "spectac": 3256,
      "freaking": 3257,
      "combination": 3258,
      "cco": 3259,
      "dum": 3260,
      "dding": 3261,
      "eh": 3262,
      "han": 3263,
      "match": 3264,
      "pi": 3265,
      "vies": 3266,
      "waff": 3267,
      "sters": 3268,
      "beverage": 3269,
      "held": 3270,
      "moment": 3271,
      "necess": 3272,
      "ama": 3273,
      "antic": 3274,
      "minim": 3275,
      "impossible": 3276,
      "helping": 3277,
      "stuck": 3278,
      "starting": 3279,
      "surround": 3280,
      "farm": 3281,
      "further": 3282,
      "reminds": 3283,
      "dressed": 3284,
      "onto": 3285,
      "stup": 3286,
      "ica": 3287,
      "chu": 3288,
      "dev": 3289,
      "irts": 3290,
      "idden": 3291,
      "aple": 3292,
      "whenever": 3293,
      "span": 3294,
      "wave": 3295,
      "giant": 3296,
      "parmes": 3297,
      "chip": 3298,
      "frust": 3299,
      "dipping": 3300,
      "himi": 3301,
      "phx": 3302,
      "cards": 3303,
      "candy": 3304,
      "indeed": 3305,
      "cucumber": 3306,
      "parmesan": 3307,
      "aun": 3308,
      "dre": 3309,
      "ol": 3310,
      "push": 3311,
      "ww": 3312,
      "eria": 3313,
      "ference": 3314,
      "example": 3315,
      "types": 3316,
      "donal": 3317,
      "muf": 3318,
      "parts": 3319,
      "bert": 3320,
      "wont": 3321,
      "kinds": 3322,
      "valet": 3323,
      "pump": 3324,
      "sprouts": 3325,
      "complaints": 3326,
      "speed": 3327,
      "bagel": 3328,
      "bonus": 3329,
      "sashimi": 3330,
      "spectacular": 3331,
      "waffle": 3332,
      "agreed": 3333,
      "threw": 3334,
      "acious": 3335,
      "thats": 3336,
      "grap": 3337,
      "diner": 3338,
      "mesa": 3339,
      "syrup": 3340,
      "managed": 3341,
      "watched": 3342,
      "browns": 3343,
      "figure": 3344,
      "acceptable": 3345,
      "wednesday": 3346,
      "17": 3347,
      "las": 3348,
      "ray": 3349,
      "thru": 3350,
      "thurs": 3351,
      "nov": 3352,
      "lobby": 3353,
      "compan": 3354,
      "traffic": 3355,
      "iling": 3356,
      "lux": 3357,
      "marin": 3358,
      "gluten": 3359,
      "pub": 3360,
      "sched": 3361,
      "ladies": 3362,
      "appreciated": 3363,
      "larger": 3364,
      "chewy": 3365,
      "bis": 3366,
      "cin": 3367,
      "kin": 3368,
      "opp": 3369,
      "pis": 3370,
      "pine": 3371,
      "ried": 3372,
      "rom": 3373,
      "goat": 3374,
      "ceeded": 3375,
      "ney": 3376,
      "fellow": 3377,
      "common": 3378,
      "artic": 3379,
      "shoo": 3380,
      "camel": 3381,
      "berries": 3382,
      "lower": 3383,
      "specialty": 3384,
      "ketch": 3385,
      "fili": 3386,
      "suggested": 3387,
      "hype": 3388,
      "scene": 3389,
      "yaki": 3390,
      "potential": 3391,
      "stupid": 3392,
      "?\"": 3393,
      "cous": 3394,
      "dj": 3395,
      "goo": 3396,
      "rave": 3397,
      "tro": 3398,
      "test": 3399,
      "stale": 3400,
      "chall": 3401,
      "libr": 3402,
      "hop": 3403,
      "trash": 3404,
      "conne": 3405,
      "appointment": 3406,
      "miso": 3407,
      "kidding": 3408,
      "include": 3409,
      "learned": 3410,
      "cheeses": 3411,
      "distance": 3412,
      "situation": 3413,
      "nd": 3414,
      "oper": 3415,
      "pitch": 3416,
      "soooo": 3417,
      "retail": 3418,
      "weight": 3419,
      "acc": 3420,
      "active": 3421,
      "rots": 3422,
      "entr": 3423,
      "compe": 3424,
      "compare": 3425,
      "carrots": 3426,
      "appears": 3427,
      "himself": 3428,
      "shows": 3429,
      "jump": 3430,
      "kore": 3431,
      "western": 3432,
      "individual": 3433,
      "cars": 3434,
      "ives": 3435,
      "nach": 3436,
      "tab": 3437,
      "wand": 3438,
      "zi": 3439,
      "ener": 3440,
      "meant": 3441,
      "shut": 3442,
      "chopped": 3443,
      "signed": 3444,
      "signature": 3445,
      "presso": 3446,
      "smoke": 3447,
      "contro": 3448,
      "equally": 3449,
      "mcdonal": 3450,
      "directly": 3451,
      "dine": 3452,
      "gain": 3453,
      "sno": 3454,
      "atta": 3455,
      "espresso": 3456,
      "access": 3457,
      "sol": 3458,
      "social": 3459,
      "coke": 3460,
      "movies": 3461,
      "quo": 3462,
      "bru": 3463,
      "personality": 3464,
      "broke": 3465,
      "boring": 3466,
      "ambience": 3467,
      "occasionally": 3468,
      "relaxing": 3469,
      "finger": 3470,
      "knowledgeable": 3471,
      "separate": 3472,
      "ctive": 3473,
      "ially": 3474,
      "ners": 3475,
      "ya": 3476,
      "chan": 3477,
      "beware": 3478,
      "upscale": 3479,
      "izing": 3480,
      "indust": 3481,
      "views": 3482,
      "dump": 3483,
      "reasons": 3484,
      "rub": 3485,
      "spices": 3486,
      "showing": 3487,
      "priv": 3488,
      "prime": 3489,
      "dden": 3490,
      "wraps": 3491,
      "allowed": 3492,
      "strawberry": 3493,
      "besides": 3494,
      "complimentary": 3495,
      "christmas": 3496,
      "effort": 3497,
      "campus": 3498,
      "\"...": 3499,
      "75": 3500,
      "dating": 3501,
      "mr": 3502,
      "reco": 3503,
      "towel": 3504,
      "altern": 3505,
      "cha": 3506,
      "buzz": 3507,
      "tight": 3508,
      "upstairs": 3509,
      "goods": 3510,
      "sudden": 3511,
      "trout": 3512,
      "confir": 3513,
      "grou": 3514,
      "bles": 3515,
      "ctions": 3516,
      "rolled": 3517,
      "underwhel": 3518,
      "complex": 3519,
      "boys": 3520,
      "receive": 3521,
      "southern": 3522,
      "wedding": 3523,
      "toasted": 3524,
      "cherry": 3525,
      "corporate": 3526,
      "muffin": 3527,
      "?)": 3528,
      "fes": 3529,
      "rese": 3530,
      "regret": 3531,
      "heck": 3532,
      "likes": 3533,
      "hopes": 3534,
      "unks": 3535,
      "fell": 3536,
      "ific": 3537,
      "spag": 3538,
      "pretenti": 3539,
      "mango": 3540,
      "pudding": 3541,
      "calor": 3542,
      "happens": 3543,
      "facility": 3544,
      "slaw": 3545,
      "changes": 3546,
      "pesto": 3547,
      "approach": 3548,
      "square": 3549,
      "reminded": 3550,
      "advant": 3551,
      "football": 3552,
      "reservations": 3553,
      "steamed": 3554,
      "overwhelming": 3555,
      "camelback": 3556,
      "pretentious": 3557,
      "ais": 3558,
      "ga": 3559,
      "law": 3560,
      "inti": 3561,
      "hel": 3562,
      "prepar": 3563,
      "draw": 3564,
      "focus": 3565,
      "blan": 3566,
      "ffle": 3567,
      "warrant": 3568,
      "heading": 3569,
      "absolute": 3570,
      "deserve": 3571,
      "interested": 3572,
      "blown": 3573,
      "golden": 3574,
      "hetti": 3575,
      "appropriate": 3576,
      "brisket": 3577,
      "spaghetti": 3578,
      "batter": 3579,
      "ply": 3580,
      "thro": 3581,
      "degree": 3582,
      "areas": 3583,
      "quil": 3584,
      "pper": 3585,
      "hire": 3586,
      "crit": 3587,
      "against": 3588,
      "staffperson": 3589,
      "photo": 3590,
      "calling": 3591,
      "brocco": 3592,
      "pedi": 3593,
      "planning": 3594,
      "incredible": 3595,
      "relative": 3596,
      "library": 3597,
      "broccoli": 3598,
      "cket": 3599,
      "fto": 3600,
      "fountain": 3601,
      "slo": 3602,
      "tat": 3603,
      "ann": 3604,
      "oured": 3605,
      "lefto": 3606,
      "wet": 3607,
      "bull": 3608,
      "tiv": 3609,
      "among": 3610,
      "therefore": 3611,
      "sight": 3612,
      "ously": 3613,
      "proceeded": 3614,
      "minus": 3615,
      "parad": 3616,
      "blend": 3617,
      "clothing": 3618,
      "partner": 3619,
      "waitresses": 3620,
      "sounded": 3621,
      "macar": 3622,
      "?!?!": 3623,
      "lemonade": 3624,
      "originally": 3625,
      "windows": 3626,
      "organized": 3627,
      "thorough": 3628,
      "korean": 3629,
      "recogn": 3630,
      "2nd": 3631,
      "mile": 3632,
      "song": 3633,
      "tart": 3634,
      "thetic": 3635,
      "lime": 3636,
      "aller": 3637,
      "teri": 3638,
      "fee": 3639,
      "canned": 3640,
      "prepare": 3641,
      "eater": 3642,
      "diners": 3643,
      "carame": 3644,
      "basket": 3645,
      "sky": 3646,
      "vod": 3647,
      "listed": 3648,
      "avored": 3649,
      "doub": 3650,
      "diet": 3651,
      "meeting": 3652,
      "hamburger": 3653,
      "thursday": 3654,
      "opport": 3655,
      "challen": 3656,
      "control": 3657,
      "aim": 3658,
      "ev": 3659,
      "iest": 3660,
      "pink": 3661,
      "scoo": 3662,
      "tf": 3663,
      "vide": 3664,
      "replaced": 3665,
      "towards": 3666,
      "isted": 3667,
      "stack": 3668,
      "wearing": 3669,
      "neat": 3670,
      "angri": 3671,
      "picking": 3672,
      "watery": 3673,
      "pasty": 3674,
      "signs": 3675,
      "hearing": 3676,
      "omg": 3677,
      "scram": 3678,
      "inviting": 3679,
      "melted": 3680,
      "adult": 3681,
      "ordinary": 3682,
      "bianco": 3683,
      "entrance": 3684,
      "advantage": 3685,
      "paradise": 3686,
      "fav": 3687,
      "gil": 3688,
      "hes": 3689,
      "rum": 3690,
      "tank": 3691,
      "chunks": 3692,
      "unlike": 3693,
      "unbelie": 3694,
      "moon": 3695,
      "subs": 3696,
      "turns": 3697,
      "adding": 3698,
      "additional": 3699,
      "regul": 3700,
      "pleasure": 3701,
      "steaks": 3702,
      "venture": 3703,
      "bringing": 3704,
      "generic": 3705,
      "named": 3706,
      "faj": 3707,
      "chains": 3708,
      "safeway": 3709,
      "furnit": 3710,
      "avenue": 3711,
      "refills": 3712,
      "repeat": 3713,
      "sleep": 3714,
      "hospital": 3715,
      "groups": 3716,
      "unbeliev": 3717,
      "furniture": 3718,
      "fiance": 3719,
      "kim": 3720,
      "pound": 3721,
      "rarely": 3722,
      "wtf": 3723,
      "ston": 3724,
      "velo": 3725,
      "belly": 3726,
      "rose": 3727,
      "ples": 3728,
      "advis": 3729,
      "ouses": 3730,
      "worker": 3731,
      "mexico": 3732,
      "costs": 3733,
      "mild": 3734,
      "treatment": 3735,
      "rushed": 3736,
      "flower": 3737,
      "frankly": 3738,
      "teriyaki": 3739,
      "cil": 3740,
      "dust": 3741,
      "ja": 3742,
      "ku": 3743,
      "pour": 3744,
      "phi": 3745,
      "atic": 3746,
      "wasted": 3747,
      "chor": 3748,
      "accept": 3749,
      "buds": 3750,
      "lock": 3751,
      "loyal": 3752,
      "sions": 3753,
      "boiled": 3754,
      "addic": 3755,
      "starving": 3756,
      "handle": 3757,
      "headed": 3758,
      "000": 3759,
      "classy": 3760,
      "sticks": 3761,
      "confused": 3762,
      "ginger": 3763,
      "gonna": 3764,
      "fab": 3765,
      "ji": 3766,
      "junk": 3767,
      "nish": 3768,
      "rout": 3769,
      "via": 3770,
      "zuc": 3771,
      "ory": 3772,
      "bug": 3773,
      "rodu": 3774,
      "nel": 3775,
      "ups": 3776,
      "exten": 3777,
      "comfy": 3778,
      "quate": 3779,
      "print": 3780,
      "itten": 3781,
      "gru": 3782,
      "stock": 3783,
      "stopping": 3784,
      "ette": 3785,
      "perfection": 3786,
      "easier": 3787,
      "introdu": 3788,
      "dirt": 3789,
      "human": 3790,
      "keeps": 3791,
      "currently": 3792,
      "terribly": 3793,
      "describe": 3794,
      "target": 3795,
      "bomb": 3796,
      "nachos": 3797,
      "suddenly": 3798,
      "vodka": 3799,
      "jac": 3800,
      "jim": 3801,
      "ow": 3802,
      "ras": 3803,
      "wing": 3804,
      "amc": 3805,
      "burnt": 3806,
      "smash": 3807,
      "cleaned": 3808,
      "dried": 3809,
      "former": 3810,
      "holding": 3811,
      "assured": 3812,
      "concerned": 3813,
      "animals": 3814,
      "hesit": 3815,
      "!\"": 3816,
      "nu": 3817,
      "uh": 3818,
      "uine": 3819,
      "insp": 3820,
      "ales": 3821,
      "stir": 3822,
      "stadi": 3823,
      "wei": 3824,
      "bered": 3825,
      "rocks": 3826,
      "pei": 3827,
      "pets": 3828,
      "respect": 3829,
      "walmart": 3830,
      "rail": 3831,
      "temper": 3832,
      "receipt": 3833,
      "confusing": 3834,
      "bike": 3835,
      "failed": 3836,
      "ridiculously": 3837,
      "constantly": 3838,
      "refused": 3839,
      "peaks": 3840,
      "articho": 3841,
      "stadium": 3842,
      ")...": 3843,
      "fon": 3844,
      "hmm": 3845,
      "zo": 3846,
      "reli": 3847,
      "stated": 3848,
      "arily": 3849,
      "secre": 3850,
      "develo": 3851,
      "hello": 3852,
      "golf": 3853,
      "ions": 3854,
      "frosting": 3855,
      "prote": 3856,
      "shirts": 3857,
      "caught": 3858,
      "grace": 3859,
      "gotta": 3860,
      "flavored": 3861,
      "steal": 3862,
      "creme": 3863,
      "create": 3864,
      "shoe": 3865,
      "freshly": 3866,
      "basis": 3867,
      "cuban": 3868,
      "seconds": 3869,
      "volu": 3870,
      "queso": 3871,
      "comfort": 3872,
      "liness": 3873,
      "fixed": 3874,
      "occasions": 3875,
      "animal": 3876,
      "following": 3877,
      "apologized": 3878,
      "ketchup": 3879,
      "regulars": 3880,
      "jun": 3881,
      "mat": 3882,
      "yr": 3883,
      "zero": 3884,
      "nope": 3885,
      "wheat": 3886,
      "terms": 3887,
      "exchange": 3888,
      "ula": 3889,
      "inks": 3890,
      "ards": 3891,
      "happily": 3892,
      "ioli": 3893,
      "claim": 3894,
      "lacked": 3895,
      "texas": 3896,
      "advice": 3897,
      "hurry": 3898,
      ".,": 3899,
      "brow": 3900,
      "fle": 3901,
      "lor": 3902,
      "lab": 3903,
      "mand": 3904,
      "nation": 3905,
      "sne": 3906,
      "arc": 3907,
      "bee": 3908,
      "cow": 3909,
      "coworkers": 3910,
      "ify": 3911,
      "apps": 3912,
      "final": 3913,
      "wai": 3914,
      "pizzeria": 3915,
      "answered": 3916,
      "cue": 3917,
      "emer": 3918,
      "decorated": 3919,
      "voice": 3920,
      "soups": 3921,
      "booths": 3922,
      "laughing": 3923,
      "requested": 3924,
      "opportunity": 3925,
      "extensive": 3926,
      "!).": 3927,
      "bone": 3928,
      "fans": 3929,
      "hidden": 3930,
      "lan": 3931,
      "ole": 3932,
      "pile": 3933,
      "wro": 3934,
      "refun": 3935,
      "remem": 3936,
      "stone": 3937,
      "ication": 3938,
      "melt": 3939,
      "bummer": 3940,
      "dee": 3941,
      "gem": 3942,
      "holy": 3943,
      "upset": 3944,
      "teeth": 3945,
      "sav": 3946,
      "ague": 3947,
      "ilities": 3948,
      "drug": 3949,
      "els": 3950,
      "izo": 3951,
      "umbled": 3952,
      "stocked": 3953,
      "desired": 3954,
      "raised": 3955,
      "mission": 3956,
      "shower": 3957,
      "businesses": 3958,
      "bowls": 3959,
      "plane": 3960,
      "falling": 3961,
      "annoyed": 3962,
      "scratch": 3963,
      "filthy": 3964,
      "budget": 3965,
      "practically": 3966,
      "students": 3967,
      "acknowledge": 3968,
      "quesadilla": 3969,
      "thrown": 3970,
      "relatively": 3971,
      "doubt": 3972,
      "chorizo": 3973,
      "secret": 3974,
      "wrote": 3975,
      "remembered": 3976,
      "bist": 3977,
      "cust": 3978,
      "cers": 3979,
      "gum": 3980,
      "thes": 3981,
      "reci": 3982,
      "anti": 3983,
      "eng": 3984,
      "nowhere": 3985,
      "nobody": 3986,
      "dear": 3987,
      "heated": 3988,
      "till": 3989,
      "teria": 3990,
      "female": 3991,
      "power": 3992,
      "comments": 3993,
      "utto": 3994,
      "discus": 3995,
      "thinks": 3996,
      "shocked": 3997,
      "checks": 3998,
      "pleasantly": 3999,
      "careful": 4000,
      "ciutto": 4001,
      "wondering": 4002,
      "seemingly": 4003,
      "boxes": 4004,
      "chefs": 4005,
      "treats": 4006,
      "thankfully": 4007,
      "assuming": 4008,
      "prosciutto": 4009,
      "entertainment": 4010,
      "mousse": 4011,
      "specifically": 4012,
      "liquid": 4013,
      "irrit": 4014,
      "biscu": 4015,
      "pissed": 4016,
      "bistro": 4017,
      "1st": 4018,
      "21": 4019,
      "4th": 4020,
      "ahi": 4021,
      "econ": 4022,
      "lust": 4023,
      "lts": 4024,
      "matt": 4025,
      "pill": 4026,
      "site": 4027,
      "scar": 4028,
      "tas": 4029,
      "ule": 4030,
      "inexpensive": 4031,
      "chim": 4032,
      "bear": 4033,
      "soap": 4034,
      "roy": 4035,
      "plied": 4036,
      "uses": 4037,
      "anted": 4038,
      "grees": 4039,
      "aint": 4040,
      "saved": 4041,
      "sharing": 4042,
      "glaz": 4043,
      "raid": 4044,
      "chini": 4045,
      "horri": 4046,
      "charm": 4047,
      "includes": 4048,
      "lined": 4049,
      "spoon": 4050,
      "metro": 4051,
      "mushy": 4052,
      "adequate": 4053,
      "snack": 4054,
      "wrapped": 4055,
      "cabbage": 4056,
      "franch": 4057,
      "theatre": 4058,
      "private": 4059,
      "leftovers": 4060,
      "zucchini": 4061,
      "cit": 4062,
      "cig": 4063,
      "kward": 4064,
      "repair": 4065,
      "asso": 4066,
      "edam": 4067,
      "nois": 4068,
      "seve": 4069,
      "tire": 4070,
      "loin": 4071,
      "pow": 4072,
      "hike": 4073,
      "cape": 4074,
      "root": 4075,
      "awkward": 4076,
      "suppose": 4077,
      "clothes": 4078,
      "court": 4079,
      "mainly": 4080,
      "darn": 4081,
      "smelled": 4082,
      "buddy": 4083,
      "consisten": 4084,
      "comparison": 4085,
      "exceptional": 4086,
      "appealing": 4087,
      "baseball": 4088,
      "dream": 4089,
      "artichoke": 4090,
      "edamame": 4091,
      "houses": 4092,
      "kyo": 4093,
      "rage": 4094,
      "wan": 4095,
      "zing": 4096,
      "refer": 4097,
      "remove": 4098,
      "encour": 4099,
      "alas": 4100,
      "haha": 4101,
      "sole": 4102,
      "fork": 4103,
      "featu": 4104,
      "quar": 4105,
      "anytime": 4106,
      "boba": 4107,
      "condi": 4108,
      "sport": 4109,
      "shu": 4110,
      "caes": 4111,
      "grass": 4112,
      "follo": 4113,
      "commun": 4114,
      "clin": 4115,
      "warned": 4116,
      "genuine": 4117,
      "charging": 4118,
      "regularly": 4119,
      "namon": 4120,
      "passing": 4121,
      "obvious": 4122,
      "lery": 4123,
      "collection": 4124,
      "gallo": 4125,
      "terminal": 4126,
      "regardless": 4127,
      "cinnamon": 4128,
      "pineapple": 4129,
      "followed": 4130,
      "ape": 4131,
      "jan": 4132,
      "lap": 4133,
      "pit": 4134,
      "pino": 4135,
      "pants": 4136,
      "thir": 4137,
      "atives": 4138,
      "toilet": 4139,
      "ense": 4140,
      "noise": 4141,
      "lli": 4142,
      "tific": 4143,
      "lored": 4144,
      "term": 4145,
      "afraid": 4146,
      "offic": 4147,
      "crave": 4148,
      "created": 4149,
      "cheeseburger": 4150,
      "marked": 4151,
      "calls": 4152,
      "stands": 4153,
      "talked": 4154,
      "surance": 4155,
      "offering": 4156,
      "events": 4157,
      "senior": 4158,
      "install": 4159,
      "cafeteria": 4160,
      "younger": 4161,
      "americanized": 4162,
      "****": 4163,
      "response": 4164,
      "microwave": 4165,
      "towels": 4166,
      "dates": 4167,
      "hic": 4168,
      "hut": 4169,
      "jen": 4170,
      "lazy": 4171,
      "ric": 4172,
      "swee": 4173,
      "thumbs": 4174,
      "attered": 4175,
      "topping": 4176,
      "chur": 4177,
      "beach": 4178,
      "ending": 4179,
      "apped": 4180,
      "icky": 4181,
      "gram": 4182,
      "cram": 4183,
      "flag": 4184,
      "disaster": 4185,
      "brings": 4186,
      "guest": 4187,
      "clai": 4188,
      "impress": 4189,
      "courses": 4190,
      "gency": 4191,
      "heads": 4192,
      "famili": 4193,
      "judge": 4194,
      "finishing": 4195,
      "bank": 4196,
      "deserves": 4197,
      "cheesy": 4198,
      "refle": 4199,
      "gorge": 4200,
      "memorable": 4201,
      "latte": 4202,
      "suggestion": 4203,
      "tamales": 4204,
      "silverware": 4205,
      "scallops": 4206,
      "helps": 4207,
      "preparation": 4208,
      "caesar": 4209,
      "aj": 4210,
      "ipped": 4211,
      "kara": 4212,
      "lb": 4213,
      "punch": 4214,
      "zoo": 4215,
      "theme": 4216,
      "replace": 4217,
      "refilled": 4218,
      "aspar": 4219,
      "buck": 4220,
      "depend": 4221,
      "lover": 4222,
      "gover": 4223,
      "autom": 4224,
      "sometime": 4225,
      "cance": 4226,
      "ppy": 4227,
      "ills": 4228,
      "perio": 4229,
      "program": 4230,
      "waiters": 4231,
      "granted": 4232,
      "cru": 4233,
      "locally": 4234,
      "creative": 4235,
      "shots": 4236,
      "trips": 4237,
      "talent": 4238,
      "garage": 4239,
      "score": 4240,
      "torta": 4241,
      "plays": 4242,
      "lacks": 4243,
      "slowly": 4244,
      "brownie": 4245,
      "velvet": 4246,
      "ridge": 4247,
      "assume": 4248,
      "balance": 4249,
      "layout": 4250,
      "sampler": 4251,
      "suggestions": 4252,
      "affordable": 4253,
      "natural": 4254,
      "accident": 4255,
      "video": 4256,
      "ache": 4257,
      "bird": 4258,
      "cater": 4259,
      "cross": 4260,
      "nie": 4261,
      "soo": 4262,
      "rec": 4263,
      "recor": 4264,
      "asks": 4265,
      "enos": 4266,
      "island": 4267,
      "began": 4268,
      "wifi": 4269,
      "ros": 4270,
      "tires": 4271,
      "pollo": 4272,
      "tequil": 4273,
      "prin": 4274,
      "tage": 4275,
      "shirt": 4276,
      "loose": 4277,
      "brewer": 4278,
      "written": 4279,
      "appet": 4280,
      "swear": 4281,
      "funky": 4282,
      "tors": 4283,
      "tells": 4284,
      "fortune": 4285,
      "lifetime": 4286,
      "hipster": 4287,
      "vegas": 4288,
      "alot": 4289,
      "grounds": 4290,
      "tapas": 4291,
      "fitness": 4292,
      "relaxed": 4293,
      "accompan": 4294,
      "concern": 4295,
      "loaded": 4296,
      "skinny": 4297,
      "gentle": 4298,
      "spanish": 4299,
      "aked": 4300,
      "bang": 4301,
      "gun": 4302,
      "ii": 4303,
      "vs": 4304,
      "vouch": 4305,
      "indoor": 4306,
      "bump": 4307,
      "degrees": 4308,
      "lose": 4309,
      "entered": 4310,
      "somebody": 4311,
      "trou": 4312,
      "bothered": 4313,
      "guar": 4314,
      "dined": 4315,
      "cloth": 4316,
      "fuck": 4317,
      "breads": 4318,
      "embar": 4319,
      "pickles": 4320,
      "appetizing": 4321,
      "offerings": 4322,
      "entirely": 4323,
      "shortly": 4324,
      "magaz": 4325,
      "inedible": 4326,
      "ugly": 4327,
      "impression": 4328,
      "samples": 4329,
      "emergency": 4330,
      "btw": 4331,
      "cious": 4332,
      "ey": 4333,
      "ened": 4334,
      "stal": 4335,
      "arm": 4336,
      "became": 4337,
      "aya": 4338,
      "ability": 4339,
      "irish": 4340,
      "exe": 4341,
      "suff": 4342,
      "atered": 4343,
      "agus": 4344,
      "shel": 4345,
      "itted": 4346,
      "!!!!!": 4347,
      "okra": 4348,
      "wasnt": 4349,
      "disappoint": 4350,
      "meaning": 4351,
      "father": 4352,
      "america": 4353,
      "instru": 4354,
      "frequently": 4355,
      "delightful": 4356,
      "associ": 4357,
      "gorgeous": 4358,
      ",\"": 4359,
      "cca": 4360,
      "dio": 4361,
      "filet": 4362,
      "lane": 4363,
      "shad": 4364,
      "scare": 4365,
      "sangri": 4366,
      "wers": 4367,
      "winter": 4368,
      "inf": 4369,
      "invol": 4370,
      "erous": 4371,
      "iso": 4372,
      "chair": 4373,
      "nose": 4374,
      "delay": 4375,
      "coast": 4376,
      "loaf": 4377,
      "ends": 4378,
      "suit": 4379,
      "servings": 4380,
      "conv": 4381,
      "conside": 4382,
      "hide": 4383,
      "opposed": 4384,
      "downstairs": 4385,
      "aware": 4386,
      "ffy": 4387,
      "huh": 4388,
      "recommendation": 4389,
      "shape": 4390,
      "tended": 4391,
      "seasoning": 4392,
      "grown": 4393,
      "blueberry": 4394,
      "screw": 4395,
      "processed": 4396,
      "throwing": 4397,
      "franc": 4398,
      "vacation": 4399,
      "schedule": 4400,
      "industry": 4401,
      "gilbert": 4402,
      "unbelievable": 4403,
      "luster": 4404,
      "karao": 4405,
      "asparagus": 4406,
      "considered": 4407,
      "bones": 4408,
      "bilt": 4409,
      "kers": 4410,
      "mia": 4411,
      "pies": 4412,
      "snow": 4413,
      "vend": 4414,
      "ines": 4415,
      "insurance": 4416,
      "report": 4417,
      "edges": 4418,
      "death": 4419,
      "ador": 4420,
      "celery": 4421,
      "ains": 4422,
      "ava": 4423,
      "spacious": 4424,
      "draft": 4425,
      "bling": 4426,
      "airy": 4427,
      "suppor": 4428,
      "vision": 4429,
      "baja": 4430,
      "farmer": 4431,
      "superb": 4432,
      "cooler": 4433,
      "nyc": 4434,
      "purse": 4435,
      "spoke": 4436,
      "fyi": 4437,
      "pepperoni": 4438,
      "colors": 4439,
      "levels": 4440,
      "southwest": 4441,
      "denny": 4442,
      "freak": 4443,
      "previously": 4444,
      "promptly": 4445,
      "shipping": 4446,
      "romantic": 4447,
      "cousin": 4448,
      "mcdonald": 4449,
      "sangria": 4450,
      "francis": 4451,
      "biltmore": 4452,
      "3rd": 4453,
      "dave": 4454,
      "kr": 4455,
      "lgo": 4456,
      "panda": 4457,
      "orrow": 4458,
      "states": 4459,
      "staple": 4460,
      "verse": 4461,
      "lling": 4462,
      "hoped": 4463,
      "dom": 4464,
      "amen": 4465,
      "feta": 4466,
      "sible": 4467,
      "everyday": 4468,
      "hasn": 4469,
      "discovered": 4470,
      "bargain": 4471,
      "tomorrow": 4472,
      "creep": 4473,
      "news": 4474,
      "bitter": 4475,
      "community": 4476,
      "sweat": 4477,
      "labe": 4478,
      "30pm": 4479,
      "fortunate": 4480,
      "soul": 4481,
      "names": 4482,
      "poorly": 4483,
      "rudely": 4484,
      "convenience": 4485,
      "knock": 4486,
      "police": 4487,
      "ultimate": 4488,
      "constru": 4489,
      "beginning": 4490,
      "joints": 4491,
      "result": 4492,
      "strips": 4493,
      "thoroughly": 4494,
      "volume": 4495,
      "custard": 4496,
      "cart": 4497,
      "pac": 4498,
      "tall": 4499,
      "ising": 4500,
      "edge": 4501,
      "forced": 4502,
      "colored": 4503,
      "log": 4504,
      "iring": 4505,
      "identi": 4506,
      "peace": 4507,
      "ified": 4508,
      "aging": 4509,
      "wax": 4510,
      "shor": 4511,
      "grade": 4512,
      "craft": 4513,
      "gimm": 4514,
      "staffed": 4515,
      "azz": 4516,
      "reviewer": 4517,
      "ians": 4518,
      "cleanliness": 4519,
      "breaded": 4520,
      "starts": 4521,
      "bands": 4522,
      "----": 4523,
      "charming": 4524,
      "tickets": 4525,
      "package": 4526,
      "factory": 4527,
      "complained": 4528,
      "speaking": 4529,
      "dresses": 4530,
      "ription": 4531,
      "million": 4532,
      "martin": 4533,
      "southwestern": 4534,
      "property": 4535,
      "apartment": 4536,
      "jerk": 4537,
      "adults": 4538,
      "described": 4539,
      "continued": 4540,
      "sprinkles": 4541,
      "jalapeno": 4542,
      "calories": 4543,
      "temperature": 4544,
      "refund": 4545,
      "recipe": 4546,
      "consistency": 4547,
      "appetite": 4548,
      "cum": 4549,
      "dred": 4550,
      "lous": 4551,
      "mama": 4552,
      "rack": 4553,
      "ske": 4554,
      "ship": 4555,
      "yi": 4556,
      "recall": 4557,
      "icking": 4558,
      "arro": 4559,
      "seared": 4560,
      "peach": 4561,
      "urban": 4562,
      "cans": 4563,
      "essenti": 4564,
      "spar": 4565,
      "illage": 4566,
      "aka": 4567,
      "flor": 4568,
      "barbe": 4569,
      "brick": 4570,
      "guide": 4571,
      "burned": 4572,
      "desper": 4573,
      "crew": 4574,
      "achi": 4575,
      "bitch": 4576,
      "visi": 4577,
      "history": 4578,
      "effe": 4579,
      "cia": 4580,
      "calm": 4581,
      "ticket": 4582,
      "buns": 4583,
      "truffle": 4584,
      "papaya": 4585,
      "messy": 4586,
      "popcorn": 4587,
      "instantly": 4588,
      "harsh": 4589,
      "bagels": 4590,
      "chatting": 4591,
      "flying": 4592,
      "cheddar": 4593,
      "comparable": 4594,
      "competent": 4595,
      "initial": 4596,
      "appearance": 4597,
      "tequila": 4598,
      "karaoke": 4599,
      "iphone": 4600,
      "pressed": 4601,
      "rac": 4602,
      "inconsistent": 4603,
      "rell": 4604,
      "refri": 4605,
      "bever": 4606,
      "llar": 4607,
      "ently": 4608,
      "pear": 4609,
      "fez": 4610,
      "endale": 4611,
      "ury": 4612,
      "iles": 4613,
      "restroom": 4614,
      "parties": 4615,
      "cture": 4616,
      "supply": 4617,
      "glendale": 4618,
      "highlight": 4619,
      "enjoyable": 4620,
      "ruined": 4621,
      "weekly": 4622,
      "panini": 4623,
      "signific": 4624,
      "hunt": 4625,
      "subway": 4626,
      "faces": 4627,
      "equip": 4628,
      "vintage": 4629,
      "independ": 4630,
      "croiss": 4631,
      "satisfying": 4632,
      "accommodating": 4633,
      "energy": 4634,
      "challenge": 4635,
      "refriger": 4636,
      "bou": 4637,
      "email": 4638,
      "mim": 4639,
      "poured": 4640,
      "zer": 4641,
      "insu": 4642,
      "atically": 4643,
      "edict": 4644,
      "icked": 4645,
      "hawai": 4646,
      "activ": 4647,
      "sey": 4648,
      "def": 4649,
      "delux": 4650,
      "lian": 4651,
      "ider": 4652,
      "peas": 4653,
      "track": 4654,
      "yel": 4655,
      "whose": 4656,
      "flour": 4657,
      "reviewers": 4658,
      "meatballs": 4659,
      "tuc": 4660,
      "pheno": 4661,
      "cession": 4662,
      "sunda": 4663,
      "penny": 4664,
      "maintain": 4665,
      "reception": 4666,
      "purpose": 4667,
      "benedict": 4668,
      "apology": 4669,
      "fedex": 4670,
      "aunty": 4671,
      "intimate": 4672,
      "franchise": 4673,
      "wanna": 4674,
      "lousy": 4675,
      "equipment": 4676,
      "mirr": 4677,
      "inary": 4678,
      "ens": 4679,
      "ormous": 4680,
      "argu": 4681,
      "lized": 4682,
      "code": 4683,
      "holi": 4684,
      "unprofessional": 4685,
      "urant": 4686,
      "background": 4687,
      "shout": 4688,
      "gratu": 4689,
      "brush": 4690,
      "burn": 4691,
      "steps": 4692,
      "stepped": 4693,
      "wherever": 4694,
      "pointing": 4695,
      "shade": 4696,
      "sizes": 4697,
      "skirt": 4698,
      "truth": 4699,
      "hundred": 4700,
      "smells": 4701,
      "killer": 4702,
      "culinary": 4703,
      "fingers": 4704,
      "circle": 4705,
      "thrift": 4706,
      "numerous": 4707,
      "jalapenos": 4708,
      "pretzels": 4709,
      "dumpl": 4710,
      "necessarily": 4711,
      "trouble": 4712,
      "phenomen": 4713,
      "!?": 4714,
      "biz": 4715,
      "bbles": 4716,
      "dor": 4717,
      "poo": 4718,
      "rad": 4719,
      "tad": 4720,
      "village": 4721,
      "thous": 4722,
      "rele": 4723,
      "meas": 4724,
      "bum": 4725,
      "roof": 4726,
      "liking": 4727,
      "outrage": 4728,
      "entering": 4729,
      "golian": 4730,
      "ours": 4731,
      "compen": 4732,
      "affe": 4733,
      "worry": 4734,
      "spir": 4735,
      "premi": 4736,
      "waitstaff": 4737,
      "sher": 4738,
      "afterwards": 4739,
      "eats": 4740,
      "locked": 4741,
      "takeout": 4742,
      "wallet": 4743,
      "mongolian": 4744,
      "patty": 4745,
      "recommendations": 4746,
      "driver": 4747,
      "dripping": 4748,
      "drizz": 4749,
      "midnight": 4750,
      "marketplace": 4751,
      "seasonal": 4752,
      "grabbed": 4753,
      "coupons": 4754,
      "forgotten": 4755,
      "hhh": 4756,
      "screens": 4757,
      "results": 4758,
      "raved": 4759,
      "alternative": 4760,
      "resem": 4761,
      "inspired": 4762,
      "national": 4763,
      "pillow": 4764,
      "beverages": 4765,
      "thousand": 4766,
      "aid": 4767,
      "ckets": 4768,
      "hers": 4769,
      "mur": 4770,
      "sest": 4771,
      "tch": 4772,
      "xious": 4773,
      "removed": 4774,
      "toler": 4775,
      "plenti": 4776,
      "magn": 4777,
      "conco": 4778,
      "perform": 4779,
      "gring": 4780,
      "fold": 4781,
      "bra": 4782,
      "bran": 4783,
      "luke": 4784,
      "steep": 4785,
      "blast": 4786,
      "reviewed": 4787,
      "berto": 4788,
      ".......": 4789,
      "surely": 4790,
      "closest": 4791,
      "casino": 4792,
      "picnic": 4793,
      "mming": 4794,
      "aired": 4795,
      "spiced": 4796,
      "warning": 4797,
      "charac": 4798,
      "truck": 4799,
      "supposedly": 4800,
      "risk": 4801,
      "listening": 4802,
      "trusted": 4803,
      "clientele": 4804,
      "screaming": 4805,
      "oysters": 4806,
      "chuck": 4807,
      "devil": 4808,
      "companion": 4809,
      "macaroni": 4810,
      "scoop": 4811,
      "premium": 4812,
      "plentiful": 4813,
      "bay": 4814,
      "fif": 4815,
      "fave": 4816,
      "fala": 4817,
      "hurt": 4818,
      "mare": 4819,
      "mass": 4820,
      "nur": 4821,
      "oat": 4822,
      "pale": 4823,
      "rass": 4824,
      "tang": 4825,
      "zone": 4826,
      "inches": 4827,
      "rede": 4828,
      "reality": 4829,
      "remind": 4830,
      "ani": 4831,
      "toss": 4832,
      "icing": 4833,
      "belt": 4834,
      "force": 4835,
      "entry": 4836,
      "amate": 4837,
      "antro": 4838,
      "qui": 4839,
      "parked": 4840,
      "blon": 4841,
      "aza": 4842,
      "sels": 4843,
      "........": 4844,
      "countered": 4845,
      "supermarket": 4846,
      "panel": 4847,
      "pancake": 4848,
      "obno": 4849,
      "hotels": 4850,
      "facilities": 4851,
      "gyros": 4852,
      "flier": 4853,
      "flowers": 4854,
      "clients": 4855,
      "growing": 4856,
      "liquor": 4857,
      "tracted": 4858,
      "sexy": 4859,
      "attached": 4860,
      "kudos": 4861,
      "jimmy": 4862,
      "period": 4863,
      "embarrass": 4864,
      "yikes": 4865,
      "hawaiian": 4866,
      "falafe": 4867,
      "32": 4868,
      ":(": 4869,
      "bc": 4870,
      "das": 4871,
      "dunk": 4872,
      "jung": 4873,
      "nes": 4874,
      "omy": 4875,
      "pup": 4876,
      "scrap": 4877,
      "vig": 4878,
      "woo": 4879,
      "innov": 4880,
      "ret": 4881,
      "accor": 4882,
      "cotta": 4883,
      "unders": 4884,
      "upper": 4885,
      "sip": 4886,
      "mahi": 4887,
      "chee": 4888,
      "spit": 4889,
      "utter": 4890,
      "elbow": 4891,
      "desire": 4892,
      "airways": 4893,
      "chow": 4894,
      "pico": 4895,
      "counted": 4896,
      "watering": 4897,
      "girlfriends": 4898,
      "pathetic": 4899,
      "inspec": 4900,
      "costco": 4901,
      "presented": 4902,
      "earth": 4903,
      "elec": 4904,
      "politely": 4905,
      "apologet": 4906,
      "majority": 4907,
      "searching": 4908,
      "overwhelmed": 4909,
      "consisted": 4910,
      "initially": 4911,
      "doctors": 4912,
      "promise": 4913,
      "strugg": 4914,
      "surrounding": 4915,
      "underwhelmed": 4916,
      "protein": 4917,
      "cowboy": 4918,
      "biscuits": 4919,
      "convinc": 4920,
      "yelper": 4921,
      "according": 4922,
      "dged": 4923,
      "fits": 4924,
      "filed": 4925,
      "native": 4926,
      "oreg": 4927,
      "qdo": 4928,
      "ror": 4929,
      "rye": 4930,
      "inch": 4931,
      "attr": 4932,
      "orted": 4933,
      "vehic": 4934,
      "semi": 4935,
      "forman": 4936,
      "lls": 4937,
      "river": 4938,
      "rious": 4939,
      "cole": 4940,
      "aret": 4941,
      "unacceptable": 4942,
      "terior": 4943,
      "gress": 4944,
      "tran": 4945,
      "quaint": 4946,
      "whats": 4947,
      "spare": 4948,
      "performan": 4949,
      "acted": 4950,
      "flan": 4951,
      "distr": 4952,
      "indul": 4953,
      "stellar": 4954,
      "reviewing": 4955,
      "march": 4956,
      "lightly": 4957,
      "studio": 4958,
      "worthy": 4959,
      "select": 4960,
      "phy": 4961,
      "cheapest": 4962,
      "charges": 4963,
      "crowds": 4964,
      "saturdays": 4965,
      "mimo": 4966,
      "limit": 4967,
      "ject": 4968,
      "swiss": 4969,
      "approxim": 4970,
      "dancing": 4971,
      "flies": 4972,
      "brie": 4973,
      "cracked": 4974,
      "enchilada": 4975,
      "fluffy": 4976,
      "thrilled": 4977,
      "vinegar": 4978,
      "pumpkin": 4979,
      "shoot": 4980,
      "introduced": 4981,
      "horribly": 4982,
      "condiments": 4983,
      "independent": 4984,
      "oatmeal": 4985,
      "qdoba": 4986,
      "22": 4987,
      "dies": 4988,
      "eu": 4989,
      "gate": 4990,
      "hence": 4991,
      "ipa": 4992,
      "nine": 4993,
      "page": 4994,
      "pond": 4995,
      "vd": 4996,
      "inn": 4997,
      "infe": 4998,
      "ata": 4999,
      "ase": 5000,
      "tops": 5001,
      "toward": 5002,
      "almon": 5003,
      "sodas": 5004,
      "roma": 5005,
      "usive": 5006,
      "ents": 5007,
      "una": 5008,
      "union": 5009,
      "unken": 5010,
      "idence": 5011,
      "astically": 5012,
      "auto": 5013,
      "explo": 5014,
      "polic": 5015,
      "comed": 5016,
      "promo": 5017,
      "drunken": 5018,
      "everybody": 5019,
      "dislike": 5020,
      "smart": 5021,
      "photos": 5022,
      "corned": 5023,
      "miser": 5024,
      "kindly": 5025,
      "handled": 5026,
      "undercooked": 5027,
      "cares": 5028,
      "booked": 5029,
      "string": 5030,
      "strict": 5031,
      "employ": 5032,
      "cutting": 5033,
      "cycle": 5034,
      "drown": 5035,
      "stickers": 5036,
      "spoiled": 5037,
      "gladly": 5038,
      "posted": 5039,
      "assumed": 5040,
      "wooden": 5041,
      "legs": 5042,
      "tourist": 5043,
      "entertaining": 5044,
      "terrific": 5045,
      "destination": 5046,
      "directions": 5047,
      "teacher": 5048,
      "membership": 5049,
      "naturally": 5050,
      "bouncers": 5051,
      "hangover": 5052,
      "minimal": 5053,
      "filipino": 5054,
      "quote": 5055,
      "warranty": 5056,
      "fajitas": 5057,
      "cilantro": 5058,
      "economy": 5059,
      "talented": 5060,
      "vendors": 5061,
      "martinis": 5062,
      "mimi": 5063,
      "amateur": 5064,
      "jungle": 5065,
      "electr": 5066,
      "convinced": 5067,
      "55": 5068,
      "cri": 5069,
      "cast": 5070,
      "cities": 5071,
      "dill": 5072,
      "eager": 5073,
      "fool": 5074,
      "gall": 5075,
      "pig": 5076,
      "rico": 5077,
      "twent": 5078,
      "watered": 5079,
      "remark": 5080,
      "replied": 5081,
      "orient": 5082,
      "stumbled": 5083,
      "metal": 5084,
      "leather": 5085,
      "novel": 5086,
      "seven": 5087,
      "button": 5088,
      "adia": 5089,
      "unfriendly": 5090,
      "tele": 5091,
      "bob": 5092,
      "aved": 5093,
      "illet": 5094,
      "donut": 5095,
      "distin": 5096,
      "brag": 5097,
      "dime": 5098,
      "diam": 5099,
      "handful": 5100,
      "spray": 5101,
      "occup": 5102,
      "insisted": 5103,
      "clue": 5104,
      "exciting": 5105,
      "haircut": 5106,
      "fatty": 5107,
      "blocks": 5108,
      "techn": 5109,
      "details": 5110,
      "specific": 5111,
      "savings": 5112,
      "squeezed": 5113,
      "marinated": 5114,
      "confirmed": 5115,
      "advise": 5116,
      "gratuity": 5117,
      "phenomenal": 5118,
      "obnoxious": 5119,
      "approximately": 5120,
      "twenty": 5121,
      "7th": 5122,
      ":-": 5123,
      "cam": 5124,
      "camer": 5125,
      "kal": 5126,
      "kong": 5127,
      "press": 5128,
      "paired": 5129,
      "rus": 5130,
      "reme": 5131,
      "anced": 5132,
      "enthus": 5133,
      "encountered": 5134,
      "esdays": 5135,
      "stall": 5136,
      "haul": 5137,
      "actions": 5138,
      "deb": 5139,
      "demand": 5140,
      "tie": 5141,
      "tier": 5142,
      "plaza": 5143,
      "unusual": 5144,
      "unfortunate": 5145,
      "ceiling": 5146,
      "pep": 5147,
      "compu": 5148,
      "fridays": 5149,
      "rescue": 5150,
      "ained": 5151,
      "cheer": 5152,
      "spread": 5153,
      "manner": 5154,
      "gery": 5155,
      "tries": 5156,
      "letter": 5157,
      "visible": 5158,
      "workout": 5159,
      "misters": 5160,
      "study": 5161,
      "rolling": 5162,
      "driven": 5163,
      "stuffing": 5164,
      "obli": 5165,
      "versity": 5166,
      "sens": 5167,
      "description": 5168,
      "painted": 5169,
      "grande": 5170,
      "atukee": 5171,
      "ramen": 5172,
      "swimming": 5173,
      "crying": 5174,
      "promised": 5175,
      "advertise": 5176,
      "squeeze": 5177,
      "blanco": 5178,
      "tattoo": 5179,
      "rasp": 5180,
      "scary": 5181,
      "encourage": 5182,
      "clinic": 5183,
      "sooo": 5184,
      "accompanied": 5185,
      "execu": 5186,
      "shelves": 5187,
      "blonde": 5188,
      "falafel": 5189,
      "dunkin": 5190,
      "understood": 5191,
      "enthusi": 5192,
      "5pm": 5193,
      "cting": 5194,
      "gf": 5195,
      "gant": 5196,
      "kits": 5197,
      "sir": 5198,
      "sits": 5199,
      "ump": 5200,
      "watukee": 5201,
      "inven": 5202,
      "renov": 5203,
      "enormous": 5204,
      "escape": 5205,
      "stress": 5206,
      "stage": 5207,
      "aro": 5208,
      "whis": 5209,
      "ripped": 5210,
      "lif": 5211,
      "core": 5212,
      "coworker": 5213,
      "ams": 5214,
      "exterior": 5215,
      "canal": 5216,
      "timely": 5217,
      "tools": 5218,
      "whatso": 5219,
      "backs": 5220,
      "illas": 5221,
      "minor": 5222,
      "disappeared": 5223,
      "mucho": 5224,
      "assort": 5225,
      "ksha": 5226,
      "adds": 5227,
      "rental": 5228,
      "exceeded": 5229,
      "pastry": 5230,
      "mmm": 5231,
      "weekday": 5232,
      "puts": 5233,
      "selected": 5234,
      "phant": 5235,
      "geni": 5236,
      "dealt": 5237,
      "pickle": 5238,
      "ahwatukee": 5239,
      "path": 5240,
      "skimp": 5241,
      "samic": 5242,
      "washing": 5243,
      "harass": 5244,
      "birds": 5245,
      "hostesses": 5246,
      "elephant": 5247,
      "balsamic": 5248,
      "fails": 5249,
      "flir": 5250,
      "killed": 5251,
      "atory": 5252,
      "repeated": 5253,
      "hills": 5254,
      "remaining": 5255,
      "acknowled": 5256,
      "successful": 5257,
      "ravioli": 5258,
      "aunt": 5259,
      "approached": 5260,
      "songs": 5261,
      "arcadia": 5262,
      "guarant": 5263,
      "amenities": 5264,
      "holiday": 5265,
      "compens": 5266,
      "oregano": 5267,
      "diamond": 5268,
      "assortment": 5269,
      "bin": 5270,
      "gay": 5271,
      "gus": 5272,
      "kat": 5273,
      "lately": 5274,
      "maple": 5275,
      "phe": 5276,
      "vip": 5277,
      "sets": 5278,
      "forgo": 5279,
      "myster": 5280,
      "losing": 5281,
      "fear": 5282,
      "goodwill": 5283,
      "teak": 5284,
      "iel": 5285,
      "hipp": 5286,
      "tooth": 5287,
      "preference": 5288,
      "cajun": 5289,
      "giri": 5290,
      "fox": 5291,
      "barri": 5292,
      "downside": 5293,
      "assist": 5294,
      "blame": 5295,
      "gged": 5296,
      "caring": 5297,
      "carrot": 5298,
      "airlines": 5299,
      "chomp": 5300,
      "breath": 5301,
      "closet": 5302,
      "valid": 5303,
      "pastries": 5304,
      "carefully": 5305,
      "phones": 5306,
      "booze": 5307,
      "sunny": 5308,
      "steakhouse": 5309,
      "fired": 5310,
      "queen": 5311,
      "interrup": 5312,
      "require": 5313,
      "massive": 5314,
      "understandable": 5315,
      "floors": 5316,
      "jewish": 5317,
      "instance": 5318,
      "nigiri": 5319,
      "groceries": 5320,
      "competition": 5321,
      "dumb": 5322,
      "minimum": 5323,
      "frustrated": 5324,
      "graph": 5325,
      "marinara": 5326,
      "snobby": 5327,
      "grub": 5328,
      "sneak": 5329,
      "voucher": 5330,
      "dumplings": 5331,
      "raspberry": 5332,
      "kitsch": 5333,
      "gic": 5334,
      "tong": 5335,
      "tled": 5336,
      "inal": 5337,
      "intri": 5338,
      "onic": 5339,
      "bel": 5340,
      "beep": 5341,
      "riot": 5342,
      "tim": 5343,
      "gee": 5344,
      "idio": 5345,
      "updated": 5346,
      "sigh": 5347,
      "grew": 5348,
      "subur": 5349,
      "conver": 5350,
      "avid": 5351,
      "ished": 5352,
      "wake": 5353,
      "cave": 5354,
      "salted": 5355,
      "shea": 5356,
      "grate": 5357,
      "grist": 5358,
      "stew": 5359,
      "cooks": 5360,
      "badly": 5361,
      "walks": 5362,
      "faster": 5363,
      "closing": 5364,
      "rule": 5365,
      "garbage": 5366,
      "shakes": 5367,
      "incident": 5368,
      "lively": 5369,
      "arrival": 5370,
      "doesnt": 5371,
      "guessing": 5372,
      "locals": 5373,
      "receiving": 5374,
      "messed": 5375,
      "message": 5376,
      "profit": 5377,
      "earned": 5378,
      "benef": 5379,
      "diego": 5380,
      "falls": 5381,
      "paint": 5382,
      "easter": 5383,
      "brands": 5384,
      "brief": 5385,
      "kobe": 5386,
      "improved": 5387,
      "smoothie": 5388,
      "ratings": 5389,
      "underwhelming": 5390,
      "caramel": 5391,
      "noisy": 5392,
      "church": 5393,
      "shady": 5394,
      "essentially": 5395,
      "outrageous": 5396,
      "genius": 5397,
      "intrigu": 5398,
      "cate": 5399,
      "gs": 5400,
      "ith": 5401,
      "nav": 5402,
      "rr": 5403,
      "tum": 5404,
      "ures": 5405,
      "vic": 5406,
      "za": 5407,
      "info": 5408,
      "reques": 5409,
      "angry": 5410,
      "edit": 5411,
      "array": 5412,
      "champ": 5413,
      "veal": 5414,
      "acces": 5415,
      "demo": 5416,
      "rial": 5417,
      "butt": 5418,
      "gear": 5419,
      "mock": 5420,
      "amanda": 5421,
      "gres": 5422,
      "hiked": 5423,
      "spill": 5424,
      "ization": 5425,
      "groo": 5426,
      "indicated": 5427,
      "herself": 5428,
      "sincerely": 5429,
      "glor": 5430,
      "feelings": 5431,
      "cases": 5432,
      "patties": 5433,
      "starters": 5434,
      "valu": 5435,
      "garnish": 5436,
      "surgery": 5437,
      "shaped": 5438,
      "puff": 5439,
      "tucked": 5440,
      "freezer": 5441,
      "bson": 5442,
      "????": 5443,
      "fishy": 5444,
      "runs": 5445,
      "couldnt": 5446,
      "milksha": 5447,
      "purple": 5448,
      "insane": 5449,
      "dropping": 5450,
      "passen": 5451,
      "complaining": 5452,
      "hearty": 5453,
      "itute": 5454,
      "confusion": 5455,
      "postino": 5456,
      "touched": 5457,
      "tenderloin": 5458,
      "rami": 5459,
      "apologize": 5460,
      "hospit": 5461,
      "passion": 5462,
      "gradu": 5463,
      "ranged": 5464,
      "leading": 5465,
      "intention": 5466,
      "pitcher": 5467,
      "ziki": 5468,
      "brulee": 5469,
      "recognize": 5470,
      "caramelized": 5471,
      "quarter": 5472,
      "catering": 5473,
      "domest": 5474,
      "gimmick": 5475,
      "tucson": 5476,
      "sundae": 5477,
      "gringos": 5478,
      "apologetic": 5479,
      "navig": 5480,
      "requests": 5481,
      "5th": 5482,
      "65": 5483,
      ";)": 5484,
      "bie": 5485,
      "dun": 5486,
      "eve": 5487,
      "gam": 5488,
      "pier": 5489,
      "sans": 5490,
      "tack": 5491,
      "zu": 5492,
      "tha": 5493,
      "iter": 5494,
      "accompany": 5495,
      "soaked": 5496,
      "tious": 5497,
      "ghter": 5498,
      "coal": 5499,
      "outdated": 5500,
      "unpleasant": 5501,
      "feature": 5502,
      "placing": 5503,
      "exit": 5504,
      "sak": 5505,
      "bosa": 5506,
      "concession": 5507,
      "shar": 5508,
      "whoever": 5509,
      "cran": 5510,
      "ignor": 5511,
      "downhill": 5512,
      "mani": 5513,
      "blaz": 5514,
      "nightmare": 5515,
      "marsh": 5516,
      "walnut": 5517,
      "trio": 5518,
      "cuts": 5519,
      "mussels": 5520,
      "cler": 5521,
      "amazed": 5522,
      "amazingly": 5523,
      "lton": 5524,
      "couches": 5525,
      "spiciness": 5526,
      "singing": 5527,
      "expectation": 5528,
      "presence": 5529,
      "anky": 5530,
      "changs": 5531,
      "changing": 5532,
      "naan": 5533,
      "buffets": 5534,
      "providing": 5535,
      "jeans": 5536,
      "jewel": 5537,
      "purchases": 5538,
      "harbor": 5539,
      "snoo": 5540,
      "flatbread": 5541,
      "bento": 5542,
      "preferred": 5543,
      "elev": 5544,
      "advance": 5545,
      "ivity": 5546,
      "invited": 5547,
      "accepted": 5548,
      "grette": 5549,
      "accommodate": 5550,
      "rainbow": 5551,
      "necessary": 5552,
      "muffins": 5553,
      "critical": 5554,
      "scrambled": 5555,
      "savory": 5556,
      "claimed": 5557,
      "instructor": 5558,
      "adorable": 5559,
      "concoction": 5560,
      "whatsoever": 5561,
      "gressive": 5562,
      "bble": 5563,
      "battered": 5564,
      "bachi": 5565,
      "cc": 5566,
      "clim": 5567,
      "ffl": 5568,
      "jes": 5569,
      "otic": 5570,
      "pun": 5571,
      "ron": 5572,
      "rates": 5573,
      "raving": 5574,
      "sink": 5575,
      "tt": 5576,
      "uum": 5577,
      "wit": 5578,
      "yay": 5579,
      "ina": 5580,
      "ances": 5581,
      "anni": 5582,
      "ativity": 5583,
      "tober": 5584,
      "educ": 5585,
      "arre": 5586,
      "mein": 5587,
      "league": 5588,
      "wasting": 5589,
      "hav": 5590,
      "nobu": 5591,
      "soc": 5592,
      "forth": 5593,
      "plies": 5594,
      "lift": 5595,
      "adventure": 5596,
      "unlimited": 5597,
      "moji": 5598,
      "aud": 5599,
      "ause": 5600,
      "poison": 5601,
      "aps": 5602,
      "justify": 5603,
      "teed": 5604,
      "summ": 5605,
      "fridge": 5606,
      "qual": 5607,
      "respec": 5608,
      "urge": 5609,
      "boss": 5610,
      "contr": 5611,
      "backyard": 5612,
      "artist": 5613,
      "shield": 5614,
      "grape": 5615,
      "craw": 5616,
      "crumbs": 5617,
      "hassle": 5618,
      "smiles": 5619,
      "frit": 5620,
      "shoulder": 5621,
      "fuse": 5622,
      "hue": 5623,
      "personable": 5624,
      "handmade": 5625,
      "pastrami": 5626,
      "ruin": 5627,
      "aigrette": 5628,
      "courtes": 5629,
      "superior": 5630,
      "boot": 5631,
      "30am": 5632,
      "tenders": 5633,
      "skillet": 5634,
      "slam": 5635,
      "planned": 5636,
      "amounts": 5637,
      "buttery": 5638,
      "loudly": 5639,
      "hangout": 5640,
      "excite": 5641,
      "explains": 5642,
      "swing": 5643,
      "harkins": 5644,
      "describ": 5645,
      "equal": 5646,
      "allowing": 5647,
      "yoga": 5648,
      "importantly": 5649,
      "flip": 5650,
      "conveniently": 5651,
      "vinaigrette": 5652,
      "jerry": 5653,
      "omelette": 5654,
      "attended": 5655,
      "swim": 5656,
      "destroy": 5657,
      "sucker": 5658,
      "tags": 5659,
      "greeting": 5660,
      "successfully": 5661,
      "scallop": 5662,
      "connection": 5663,
      "shuttle": 5664,
      "rubber": 5665,
      "cigaret": 5666,
      "features": 5667,
      "officially": 5668,
      "jenn": 5669,
      "families": 5670,
      "record": 5671,
      "bizarre": 5672,
      "remarkable": 5673,
      "distinct": 5674,
      "courtesy": 5675,
      ",,": 5676,
      "bass": 5677,
      "bree": 5678,
      "eld": 5679,
      "epic": 5680,
      "gloves": 5681,
      "ito": 5682,
      "munch": 5683,
      "nings": 5684,
      "ore": 5685,
      "rn": 5686,
      "sant": 5687,
      "lying": 5688,
      "leaf": 5689,
      "seum": 5690,
      "bust": 5691,
      "forms": 5692,
      "tival": 5693,
      "liest": 5694,
      "limp": 5695,
      "adm": 5696,
      "holes": 5697,
      "ami": 5698,
      "fees": 5699,
      "therap": 5700,
      "popped": 5701,
      "grey": 5702,
      "trick": 5703,
      "ichi": 5704,
      "pra": 5705,
      "bored": 5706,
      "boston": 5707,
      "ppers": 5708,
      "gran": 5709,
      "grat": 5710,
      "grain": 5711,
      "whore": 5712,
      "stops": 5713,
      "guage": 5714,
      "smiled": 5715,
      "carp": 5716,
      "cuz": 5717,
      "pics": 5718,
      "horse": 5719,
      "bowling": 5720,
      "july": 5721,
      "facing": 5722,
      "required": 5723,
      "bottled": 5724,
      "spoken": 5725,
      "purchasing": 5726,
      "washed": 5727,
      "caprese": 5728,
      "nibbles": 5729,
      "screwed": 5730,
      "merchand": 5731,
      "flights": 5732,
      "squash": 5733,
      "micha": 5734,
      "sampled": 5735,
      "fillet": 5736,
      "expand": 5737,
      "flowing": 5738,
      "legit": 5739,
      "ignore": 5740,
      "hooked": 5741,
      "continues": 5742,
      "joining": 5743,
      "commented": 5744,
      "numbers": 5745,
      "taxi": 5746,
      "schedul": 5747,
      "festival": 5748,
      "sloppy": 5749,
      "locker": 5750,
      "develop": 5751,
      "language": 5752,
      "chimich": 5753,
      "glaze": 5754,
      "thirsty": 5755,
      "depending": 5756,
      "magazine": 5757,
      "francisco": 5758,
      "vehicle": 5759,
      "district": 5760,
      "camera": 5761,
      "katsu": 5762,
      "nobuo": 5763,
      "6pm": 5764,
      "bare": 5765,
      "fc": 5766,
      "file": 5767,
      "ghet": 5768,
      "hits": 5769,
      "kn": 5770,
      "nature": 5771,
      "pred": 5772,
      "radi": 5773,
      "racks": 5774,
      "tent": 5775,
      "tree": 5776,
      "viche": 5777,
      "yy": 5778,
      "theless": 5779,
      "incre": 5780,
      "incompetent": 5781,
      "anc": 5782,
      "aters": 5783,
      "toys": 5784,
      "ensive": 5785,
      "acity": 5786,
      "seed": 5787,
      "copy": 5788,
      "adish": 5789,
      "abi": 5790,
      "iceber": 5791,
      "mob": 5792,
      "seradish": 5793,
      "exotic": 5794,
      "silly": 5795,
      "sils": 5796,
      "theirs": 5797,
      "worried": 5798,
      "yep": 5799,
      "evenings": 5800,
      "eline": 5801,
      "loom": 5802,
      "umb": 5803,
      "jobs": 5804,
      "museum": 5805,
      "declined": 5806,
      "oppos": 5807,
      "herb": 5808,
      "gging": 5809,
      "nerv": 5810,
      "walgreen": 5811,
      "sandwhich": 5812,
      "meatloaf": 5813,
      "commer": 5814,
      "histor": 5815,
      "misfortune": 5816,
      "breading": 5817,
      "roughly": 5818,
      "curries": 5819,
      "horseradish": 5820,
      "twist": 5821,
      "wished": 5822,
      "winner": 5823,
      "damned": 5824,
      "welcomed": 5825,
      "attack": 5826,
      "tempor": 5827,
      "malls": 5828,
      "tradition": 5829,
      "content": 5830,
      "***": 5831,
      "correctly": 5832,
      "sampling": 5833,
      "chatted": 5834,
      "palette": 5835,
      "conversations": 5836,
      "container": 5837,
      "contained": 5838,
      "utensils": 5839,
      "fighting": 5840,
      "dragged": 5841,
      "conditioning": 5842,
      "cheesesteak": 5843,
      "annual": 5844,
      "allergic": 5845,
      "kimchi": 5846,
      "cramped": 5847,
      "automatically": 5848,
      "niece": 5849,
      "brewery": 5850,
      "character": 5851,
      "flirting": 5852,
      "acknowledged": 5853,
      "accessible": 5854,
      "sakana": 5855,
      "excitement": 5856,
      "chimichang": 5857,
      "ghetto": 5858,
      "opposite": 5859,
      "199": 5860,
      "49": 5861,
      "aes": 5862,
      "bility": 5863,
      "cure": 5864,
      "gth": 5865,
      "mately": 5866,
      "snot": 5867,
      "tit": 5868,
      "wl": 5869,
      "yup": 5870,
      "intended": 5871,
      "research": 5872,
      "tokyo": 5873,
      "ency": 5874,
      "alter": 5875,
      "sticking": 5876,
      "arug": 5877,
      "arrange": 5878,
      "mechan": 5879,
      "built": 5880,
      "dele": 5881,
      "debit": 5882,
      "tik": 5883,
      "plans": 5884,
      "lion": 5885,
      "adjust": 5886,
      "unappetizing": 5887,
      "ida": 5888,
      "motel": 5889,
      "domin": 5890,
      "foodie": 5891,
      "upgrade": 5892,
      "pocket": 5893,
      "anybody": 5894,
      "greatest": 5895,
      "conference": 5896,
      "avings": 5897,
      "agu": 5898,
      "ille": 5899,
      "shine": 5900,
      "mpy": 5901,
      "mpoo": 5902,
      "themed": 5903,
      "grind": 5904,
      "grits": 5905,
      "cravings": 5906,
      "reads": 5907,
      "wellness": 5908,
      "pretend": 5909,
      "creativity": 5910,
      "smith": 5911,
      "sauteed": 5912,
      "turd": 5913,
      "shoved": 5914,
      "lunches": 5915,
      "turning": 5916,
      "corre": 5917,
      "baseline": 5918,
      "dium": 5919,
      "dipped": 5920,
      "checkout": 5921,
      "shaved": 5922,
      "shampoo": 5923,
      "certific": 5924,
      "housekeeping": 5925,
      "tube": 5926,
      "scotch": 5927,
      "warmed": 5928,
      "settle": 5929,
      "sundays": 5930,
      "runny": 5931,
      "arriving": 5932,
      "october": 5933,
      "solution": 5934,
      "happening": 5935,
      "substandard": 5936,
      "macy": 5937,
      "neighbors": 5938,
      "thanksgiving": 5939,
      "chilies": 5940,
      "risot": 5941,
      "confident": 5942,
      "trained": 5943,
      "disgusted": 5944,
      "ownership": 5945,
      "applebee": 5946,
      "covering": 5947,
      "ultimately": 5948,
      "matters": 5949,
      "daniel": 5950,
      "yuk": 5951,
      "latest": 5952,
      "vacuum": 5953,
      "tamale": 5954,
      "theaters": 5955,
      "advertised": 5956,
      "dragon": 5957,
      "windshield": 5958,
      "struck": 5959,
      "feedback": 5960,
      "frustrating": 5961,
      "pitchers": 5962,
      "snob": 5963,
      "fajita": 5964,
      "effective": 5965,
      "croissant": 5966,
      "bummed": 5967,
      "tangy": 5968,
      "mimosas": 5969,
      "execution": 5970,
      "grateful": 5971,
      "annivers": 5972,
      "risotto": 5973,
      ")!": 5974,
      "7pm": 5975,
      "8pm": 5976,
      "bam": 5977,
      "batch": 5978,
      "cact": 5979,
      "ckey": 5980,
      "crip": 5981,
      "dairy": 5982,
      "fen": 5983,
      "hong": 5984,
      "hated": 5985,
      "iop": 5986,
      "kilt": 5987,
      "mgr": 5988,
      "ost": 5989,
      "oily": 5990,
      "reheated": 5991,
      "todd": 5992,
      "esque": 5993,
      "stree": 5994,
      "vey": 5995,
      "becoming": 5996,
      "hay": 5997,
      "acy": 5998,
      "accompl": 5999,
      "soaking": 6000,
      "hopping": 6001,
      "ental": 6002,
      "model": 6003,
      "maxim": 6004,
      "sucking": 6005,
      "quant": 6006,
      "resist": 6007,
      "ules": 6008,
      "boat": 6009,
      "hilton": 6010,
      "artists": 6011,
      "shif": 6012,
      "shank": 6013,
      "everytime": 6014,
      "gray": 6015,
      "eatery": 6016,
      "display": 6017,
      "barber": 6018,
      "barnes": 6019,
      "brit": 6020,
      "bleu": 6021,
      "dinners": 6022,
      "herbs": 6023,
      "cree": 6024,
      "license": 6025,
      "award": 6026,
      "carts": 6027,
      "lake": 6028,
      "courte": 6029,
      "courty": 6030,
      "pride": 6031,
      "schnit": 6032,
      "hipsters": 6033,
      "humble": 6034,
      "fixing": 6035,
      "smothered": 6036,
      "grabbing": 6037,
      "convention": 6038,
      "snap": 6039,
      "bench": 6040,
      "allows": 6041,
      "frying": 6042,
      "painting": 6043,
      "beats": 6044,
      "dentist": 6045,
      "brio": 6046,
      "chata": 6047,
      "culture": 6048,
      "ethiop": 6049,
      "attendants": 6050,
      "scenery": 6051,
      "surprising": 6052,
      "yakiso": 6053,
      "pinch": 6054,
      "remode": 6055,
      "intense": 6056,
      "celebrate": 6057,
      "lasag": 6058,
      "mcdonalds": 6059,
      "quoted": 6060,
      "smashburger": 6061,
      "severely": 6062,
      "involved": 6063,
      "activities": 6064,
      "redeem": 6065,
      "performance": 6066,
      "computer": 6067,
      "eastern": 6068,
      "navigate": 6069,
      "merchandise": 6070,
      "nervous": 6071,
      "arugula": 6072,
      "anniversary": 6073,
      "cactus": 6074,
      "streets": 6075,
      "schnitzel": 6076,
      "yakisoba": 6077,
      "bye": 6078,
      "dst": 6079,
      "dread": 6080,
      "dang": 6081,
      "fond": 6082,
      "imo": 6083,
      "kool": 6084,
      "kris": 6085,
      "kung": 6086,
      "lush": 6087,
      "mam": 6088,
      "rap": 6089,
      "rican": 6090,
      "scor": 6091,
      "tone": 6092,
      "waters": 6093,
      "reas": 6094,
      "ony": 6095,
      "tost": 6096,
      "ening": 6097,
      "ism": 6098,
      "icate": 6099,
      "chal": 6100,
      "hap": 6101,
      "haban": 6102,
      "sorely": 6103,
      "sodium": 6104,
      "whipped": 6105,
      "dece": 6106,
      "determin": 6107,
      "heir": 6108,
      "ghost": 6109,
      "butcher": 6110,
      "cot": 6111,
      "coll": 6112,
      "loss": 6113,
      "unmarked": 6114,
      "cereal": 6115,
      "exhi": 6116,
      "exces": 6117,
      "max": 6118,
      "maid": 6119,
      "tee": 6120,
      "shy": 6121,
      "restrooms": 6122,
      "tastings": 6123,
      "ign": 6124,
      "disagree": 6125,
      "disrespect": 6126,
      "deciding": 6127,
      "guit": 6128,
      "guac": 6129,
      "assorted": 6130,
      "ported": 6131,
      "tural": 6132,
      "margin": 6133,
      "lunchtime": 6134,
      "brea": 6135,
      "raise": 6136,
      "cleaners": 6137,
      "staring": 6138,
      "starter": 6139,
      "counts": 6140,
      "valent": 6141,
      "suspic": 6142,
      "trek": 6143,
      "function": 6144,
      "horchata": 6145,
      "sizz": 6146,
      "grimal": 6147,
      "packaged": 6148,
      "honor": 6149,
      "hung": 6150,
      "masala": 6151,
      "varieties": 6152,
      "danger": 6153,
      "sanit": 6154,
      "designer": 6155,
      "attempting": 6156,
      "cracker": 6157,
      "attending": 6158,
      "strawberries": 6159,
      "practice": 6160,
      "patronize": 6161,
      "lentil": 6162,
      "improvement": 6163,
      "bouncer": 6164,
      "compelled": 6165,
      "wander": 6166,
      "alternatives": 6167,
      "confirm": 6168,
      "loyalty": 6169,
      "fabric": 6170,
      "route": 6171,
      "hesitant": 6172,
      "freakin": 6173,
      "construction": 6174,
      "maintained": 6175,
      "innova": 6176,
      "romaine": 6177,
      "repeatedly": 6178,
      "compensation": 6179,
      "snooty": 6180,
      "jesus": 6181,
      "elder": 6182,
      "iceberg": 6183,
      "commercial": 6184,
      "courteous": 6185,
      "courtyard": 6186,
      "determined": 6187,
      "heirloom": 6188,
      "excessive": 6189,
      "grimaldi": 6190,
      "!),": 6191,
      "$.": 6192,
      "120": 6193,
      "2pm": 6194,
      "85": 6195,
      "eg": 6196,
      "ets": 6197,
      "gator": 6198,
      "hmmmm": 6199,
      "lam": 6200,
      "lted": 6201,
      "nour": 6202,
      "pc": 6203,
      "pint": 6204,
      "pip": 6205,
      "ration": 6206,
      "sf": 6207,
      "sic": 6208,
      "usel": 6209,
      "reaction": 6210,
      "reply": 6211,
      "anders": 6212,
      "itation": 6213,
      "stun": 6214,
      "arts": 6215,
      "artific": 6216,
      "chunk": 6217,
      "bears": 6218,
      "beet": 6219,
      "acco": 6220,
      "forgive": 6221,
      "coles": 6222,
      "ceviche": 6223,
      "neck": 6224,
      "iff": 6225,
      "pops": 6226,
      "resident": 6227,
      "hibachi": 6228,
      "backed": 6229,
      "overdone": 6230,
      "yea": 6231,
      "yelling": 6232,
      "friendliest": 6233,
      "caution": 6234,
      "grave": 6235,
      "gracious": 6236,
      "umes": 6237,
      "distur": 6238,
      "decad": 6239,
      "blew": 6240,
      "blended": 6241,
      "tenance": 6242,
      "marily": 6243,
      "fudge": 6244,
      "cleaner": 6245,
      "divine": 6246,
      "trees": 6247,
      "recommending": 6248,
      "surly": 6249,
      "tuesdays": 6250,
      "farther": 6251,
      "curtain": 6252,
      "pickup": 6253,
      "maintenance": 6254,
      "pressure": 6255,
      "stream": 6256,
      "sorts": 6257,
      "deserved": 6258,
      "sounding": 6259,
      "cornbread": 6260,
      "beds": 6261,
      "university": 6262,
      "sells": 6263,
      "smoking": 6264,
      "beautifully": 6265,
      "provides": 6266,
      "inoa": 6267,
      "adore": 6268,
      "benches": 6269,
      "standards": 6270,
      "plantains": 6271,
      "fruits": 6272,
      "fredo": 6273,
      "scrump": 6274,
      "related": 6275,
      "combined": 6276,
      "jersey": 6277,
      "largest": 6278,
      "faux": 6279,
      "direction": 6280,
      "directed": 6281,
      "tanks": 6282,
      "ranging": 6283,
      "hesitate": 6284,
      "fondue": 6285,
      "discussed": 6286,
      "scared": 6287,
      "peaceful": 6288,
      "shorts": 6289,
      "relleno": 6290,
      "bouti": 6291,
      "technically": 6292,
      "guarantee": 6293,
      "chompie": 6294,
      "tongue": 6295,
      "categor": 6296,
      "spilled": 6297,
      "rnr": 6298,
      "chimichanga": 6299,
      "quantity": 6300,
      "sizzling": 6301,
      "nourish": 6302,
      "piping": 6303,
      "useless": 6304,
      "accomo": 6305,
      "coleslaw": 6306,
      "\"?": 6307,
      ",...": 6308,
      "140": 6309,
      "3d": 6310,
      "500": 6311,
      "cany": 6312,
      "hana": 6313,
      "jum": 6314,
      "jager": 6315,
      "mb": 6316,
      "oam": 6317,
      "piss": 6318,
      "rit": 6319,
      "rag": 6320,
      "vy": 6321,
      "vio": 6322,
      "vary": 6323,
      "wend": 6324,
      "thread": 6325,
      "inous": 6326,
      "republic": 6327,
      "retro": 6328,
      "oul": 6329,
      "aton": 6330,
      "alley": 6331,
      "altogether": 6332,
      "alfredo": 6333,
      "lean": 6334,
      "weigh": 6335,
      "beg": 6336,
      "becomes": 6337,
      "accent": 6338,
      "bucket": 6339,
      "butai": 6340,
      "lil": 6341,
      "coach": 6342,
      "noted": 6343,
      "ceed": 6344,
      "motion": 6345,
      "mochi": 6346,
      "mocha": 6347,
      "amber": 6348,
      "upgrad": 6349,
      "ifer": 6350,
      "quinoa": 6351,
      "ounce": 6352,
      "princ": 6353,
      "hiker": 6354,
      "drank": 6355,
      "seek": 6356,
      "flak": 6357,
      "flash": 6358,
      "stories": 6359,
      "opt": 6360,
      "blt": 6361,
      "blind": 6362,
      "bliss": 6363,
      "creating": 6364,
      "creations": 6365,
      "smiling": 6366,
      "sauced": 6367,
      "ggle": 6368,
      "carb": 6369,
      "carpet": 6370,
      "airline": 6371,
      "potstickers": 6372,
      "lesson": 6373,
      "mont": 6374,
      "monkey": 6375,
      "supple": 6376,
      "101": 6377,
      "dudes": 6378,
      "meatball": 6379,
      "hubster": 6380,
      "symp": 6381,
      "died": 6382,
      "clusion": 6383,
      "understaffed": 6384,
      "rubb": 6385,
      "region": 6386,
      "bait": 6387,
      "phar": 6388,
      "panic": 6389,
      "pao": 6390,
      "tends": 6391,
      "dying": 6392,
      "charred": 6393,
      "skills": 6394,
      "bills": 6395,
      "cutic": 6396,
      "meantime": 6397,
      "yelped": 6398,
      "stretch": 6399,
      "banan": 6400,
      "trucks": 6401,
      "vari": 6402,
      "americ": 6403,
      "messing": 6404,
      "mike": 6405,
      "uniforms": 6406,
      "washes": 6407,
      "trader": 6408,
      "slide": 6409,
      "sonor": 6410,
      "immediate": 6411,
      "splitting": 6412,
      "baba": 6413,
      "plants": 6414,
      "goddamn": 6415,
      "nonetheless": 6416,
      "yogur": 6417,
      "fireplace": 6418,
      "dental": 6419,
      "traveled": 6420,
      "rotation": 6421,
      "detailed": 6422,
      "breasts": 6423,
      "johnny": 6424,
      "ilian": 6425,
      "consumer": 6426,
      "malt": 6427,
      "sprinkled": 6428,
      "sombre": 6429,
      "reached": 6430,
      "gooey": 6431,
      "calorie": 6432,
      "aisle": 6433,
      "aisles": 6434,
      "?!?!?!": 6435,
      "eateries": 6436,
      "scramble": 6437,
      "rosemary": 6438,
      "philly": 6439,
      "routine": 6440,
      "hmmm": 6441,
      "glazed": 6442,
      "citrus": 6443,
      "featured": 6444,
      "accidentally": 6445,
      "prints": 6446,
      "creepy": 6447,
      "labeled": 6448,
      "attractive": 6449,
      "gusto": 6450,
      "suburban": 6451,
      "dunno": 6452,
      "tacky": 6453,
      "jennifer": 6454,
      "!?!": 6455,
      "aioli": 6456,
      "cen": 6457,
      "cise": 6458,
      "dous": 6459,
      "eli": 6460,
      "fate": 6461,
      "lard": 6462,
      "links": 6463,
      "lava": 6464,
      "mig": 6465,
      "master": 6466,
      "od": 6467,
      "oce": 6468,
      "pace": 6469,
      "rust": 6470,
      "rita": 6471,
      "sri": 6472,
      "tissue": 6473,
      "influ": 6474,
      "reserved": 6475,
      "eral": 6476,
      "albe": 6477,
      "itter": 6478,
      "stared": 6479,
      "nos": 6480,
      "budd": 6481,
      "forb": 6482,
      "ril": 6483,
      "ribe": 6484,
      "tially": 6485,
      "geor": 6486,
      "lola": 6487,
      "lodge": 6488,
      "pecan": 6489,
      "excl": 6490,
      "popping": 6491,
      "polit": 6492,
      "april": 6493,
      "redu": 6494,
      "frills": 6495,
      "pregn": 6496,
      "tai": 6497,
      "cade": 6498,
      "loop": 6499,
      "offices": 6500,
      "crush": 6501,
      "igan": 6502,
      "brain": 6503,
      "lugg": 6504,
      "indic": 6505,
      "carn": 6506,
      "carla": 6507,
      "carbon": 6508,
      "margh": 6509,
      "breaking": 6510,
      "10pm": 6511,
      "lastly": 6512,
      "homeless": 6513,
      "meaty": 6514,
      "basics": 6515,
      "houston": 6516,
      "northern": 6517,
      "nordst": 6518,
      "halfway": 6519,
      "couch": 6520,
      "managers": 6521,
      "lackluster": 6522,
      "louis": 6523,
      "fourth": 6524,
      "lina": 6525,
      "pools": 6526,
      "sausages": 6527,
      "itution": 6528,
      "magical": 6529,
      "popul": 6530,
      "sonic": 6531,
      "instant": 6532,
      "swanky": 6533,
      "occasional": 6534,
      "dense": 6535,
      "chilly": 6536,
      "microw": 6537,
      "athy": 6538,
      "ivy": 6539,
      "ethnic": 6540,
      "rotting": 6541,
      "24th": 6542,
      "exceptionally": 6543,
      "catfish": 6544,
      "substance": 6545,
      "filiberto": 6546,
      "zipp": 6547,
      "zola": 6548,
      "irritated": 6549,
      "powering": 6550,
      "delayed": 6551,
      "significant": 6552,
      "insult": 6553,
      "measure": 6554,
      "pillows": 6555,
      "inspection": 6556,
      "policy": 6557,
      "strictly": 6558,
      "occupied": 6559,
      ":-)": 6560,
      "michael": 6561,
      "mobile": 6562,
      "bamboo": 6563,
      "elderly": 6564,
      "viol": 6565,
      "wendy": 6566,
      "americans": 6567,
      "ocean": 6568,
      "albeit": 6569,
      "nordstrom": 6570,
      "1pm": 6571,
      "39": 6572,
      "baffl": 6573,
      "dash": 6574,
      "ego": 6575,
      "hats": 6576,
      "jazz": 6577,
      "kit": 6578,
      "kier": 6579,
      "latter": 6580,
      "moo": 6581,
      "mast": 6582,
      "rof": 6583,
      "uary": 6584,
      "reput": 6585,
      "oud": 6586,
      "onna": 6587,
      "andon": 6588,
      "alien": 6589,
      "inge": 6590,
      "escap": 6591,
      "stro": 6592,
      "stals": 6593,
      "chut": 6594,
      "vern": 6595,
      "royal": 6596,
      "timing": 6597,
      "keting": 6598,
      "lighter": 6599,
      "adjac": 6600,
      "abandon": 6601,
      "hockey": 6602,
      "unit": 6603,
      "peel": 6604,
      "feast": 6605,
      "aut": 6606,
      "pome": 6607,
      "pockets": 6608,
      "someplace": 6609,
      "mai": 6610,
      "resto": 6611,
      "essence": 6612,
      "cheers": 6613,
      "shelf": 6614,
      "gig": 6615,
      "woke": 6616,
      "affair": 6617,
      "ctic": 6618,
      "answers": 6619,
      "addy": 6620,
      "position": 6621,
      "digress": 6622,
      "phoenic": 6623,
      "phys": 6624,
      "boom": 6625,
      "fishing": 6626,
      "settled": 6627,
      "sunset": 6628,
      "arrives": 6629,
      "pane": 6630,
      "observ": 6631,
      "---": 6632,
      "decoration": 6633,
      "decorations": 6634,
      "billing": 6635,
      "thinner": 6636,
      "occur": 6637,
      "primarily": 6638,
      "winning": 6639,
      "wedge": 6640,
      "truffl": 6641,
      "compon": 6642,
      "naked": 6643,
      "thicker": 6644,
      "sporting": 6645,
      "fallen": 6646,
      "annoyance": 6647,
      "legal": 6648,
      "strongly": 6649,
      "peanuts": 6650,
      "concert": 6651,
      "teenage": 6652,
      "smoothies": 6653,
      "compliments": 6654,
      "containers": 6655,
      "doughy": 6656,
      "remained": 6657,
      "aaaa": 6658,
      "separately": 6659,
      "crystals": 6660,
      "brews": 6661,
      "oyster": 6662,
      "pushed": 6663,
      "speedy": 6664,
      "industrial": 6665,
      "stacked": 6666,
      "bugs": 6667,
      "labor": 6668,
      "oleanders": 6669,
      "genuinely": 6670,
      "familiar": 6671,
      "reflect": 6672,
      "automatic": 6673,
      "gentleman": 6674,
      "barbeque": 6675,
      "receptionist": 6676,
      "spirit": 6677,
      "sheraton": 6678,
      "drizzled": 6679,
      "indulge": 6680,
      "aroma": 6681,
      "mystery": 6682,
      "interrupted": 6683,
      "gristle": 6684,
      "milkshake": 6685,
      "sharp": 6686,
      "marshm": 6687,
      "slammed": 6688,
      "historic": 6689,
      "ethiopian": 6690,
      "remodeled": 6691,
      "lasagna": 6692,
      "bananas": 6693,
      "ribeye": 6694,
      "pregnant": 6695,
      "carnitas": 6696,
      "rofoam": 6697,
      "adjacent": 6698,
      "29": 6699,
      "3pm": 6700,
      "79": 6701,
      "bff": 6702,
      "cable": 6703,
      "ears": 6704,
      "eww": 6705,
      "fusion": 6706,
      "galo": 6707,
      "hitting": 6708,
      "hiding": 6709,
      "kale": 6710,
      "kicked": 6711,
      "oak": 6712,
      "pb": 6713,
      "pf": 6714,
      "tz": 6715,
      "vast": 6716,
      "vant": 6717,
      "wha": 6718,
      "indoors": 6719,
      "rella": 6720,
      "reported": 6721,
      "asy": 6722,
      "ories": 6723,
      "istr": 6724,
      "merely": 6725,
      "chai": 6726,
      "belong": 6727,
      "haust": 6728,
      "acle": 6729,
      "verde": 6730,
      "rode": 6731,
      "ads": 6732,
      "aded": 6733,
      "abor": 6734,
      "unhappy": 6735,
      "mojo": 6736,
      "neath": 6737,
      "feat": 6738,
      "goodies": 6739,
      "exam": 6740,
      "exhaust": 6741,
      "teas": 6742,
      "quiz": 6743,
      "sauna": 6744,
      "ppin": 6745,
      "agne": 6746,
      "hired": 6747,
      "worn": 6748,
      "overcharged": 6749,
      "overpowering": 6750,
      "proxim": 6751,
      "prepaid": 6752,
      "artwork": 6753,
      "byob": 6754,
      "resturant": 6755,
      "salsas": 6756,
      "shep": 6757,
      "eaters": 6758,
      "stocking": 6759,
      "discour": 6760,
      "downright": 6761,
      "medical": 6762,
      "turf": 6763,
      "bertos": 6764,
      "marriot": 6765,
      "shown": 6766,
      "shopper": 6767,
      "triple": 6768,
      "chosen": 6769,
      "supplies": 6770,
      "istic": 6771,
      "dug": 6772,
      "duh": 6773,
      "handy": 6774,
      "waterfront": 6775,
      "underneath": 6776,
      "paste": 6777,
      "2010": 6778,
      "bake": 6779,
      "tub": 6780,
      "tortas": 6781,
      "players": 6782,
      "dealing": 6783,
      "pickled": 6784,
      "isnt": 6785,
      "ventured": 6786,
      "trade": 6787,
      "wouldnt": 6788,
      "buyer": 6789,
      "voted": 6790,
      "cardboard": 6791,
      "hearts": 6792,
      "chase": 6793,
      "blackberry": 6794,
      "fatburger": 6795,
      "machaca": 6796,
      "llywood": 6797,
      "furnish": 6798,
      "grandma": 6799,
      "sesame": 6800,
      "opinions": 6801,
      "nicer": 6802,
      "nicest": 6803,
      "negle": 6804,
      "statement": 6805,
      "memories": 6806,
      "remains": 6807,
      "crown": 6808,
      "stingy": 6809,
      "screamed": 6810,
      "regarding": 6811,
      "delivering": 6812,
      "gonzola": 6813,
      "appropriately": 6814,
      "quesadillas": 6815,
      "operation": 6816,
      "mrs": 6817,
      "photograp": 6818,
      "basketball": 6819,
      "pounds": 6820,
      "cancel": 6821,
      "gentlemen": 6822,
      "supporting": 6823,
      "--------": 6824,
      "mirrors": 6825,
      "tolerate": 6826,
      "tossed": 6827,
      "cottage": 6828,
      "euro": 6829,
      "almond": 6830,
      "oriented": 6831,
      "stalls": 6832,
      "hippie": 6833,
      "champagne": 6834,
      "valuable": 6835,
      "accompanying": 6836,
      "jewelry": 6837,
      "admitted": 6838,
      "tikka": 6839,
      "maximum": 6840,
      "habanero": 6841,
      "artificial": 6842,
      "gravel": 6843,
      "boutique": 6844,
      "canyon": 6845,
      "mignon": 6846,
      "forbidden": 6847,
      "luggage": 6848,
      "zipps": 6849,
      "kierland": 6850,
      "pomegran": 6851,
      "proximity": 6852,
      "27": 6853,
      "34": 6854,
      "48": 6855,
      "?...": 6856,
      "bast": 6857,
      "bour": 6858,
      "cats": 6859,
      "durant": 6860,
      "elo": 6861,
      "fus": 6862,
      "fty": 6863,
      "hr": 6864,
      "hatt": 6865,
      "jar": 6866,
      "owed": 6867,
      "va": 6868,
      "ws": 6869,
      "yasu": 6870,
      "thumb": 6871,
      "inno": 6872,
      "oust": 6873,
      "atziki": 6874,
      "eness": 6875,
      "ordeal": 6876,
      "isu": 6877,
      "ission": 6878,
      "stitch": 6879,
      "mere": 6880,
      "leans": 6881,
      "chie": 6882,
      "acoust": 6883,
      "socks": 6884,
      "wig": 6885,
      "tiram": 6886,
      "plug": 6887,
      "liar": 6888,
      "limes": 6889,
      "liflower": 6890,
      "advent": 6891,
      "outta": 6892,
      "notes": 6893,
      "unt": 6894,
      "moms": 6895,
      "dol": 6896,
      "apples": 6897,
      "quet": 6898,
      "peruse": 6899,
      "preserve": 6900,
      "caused": 6901,
      "minded": 6902,
      "cauliflower": 6903,
      "acting": 6904,
      "craf": 6905,
      "dissa": 6906,
      "discounted": 6907,
      "burro": 6908,
      "manhatt": 6909,
      "expert": 6910,
      "caro": 6911,
      "marks": 6912,
      "married": 6913,
      "impec": 6914,
      "shocking": 6915,
      "moni": 6916,
      "letting": 6917,
      "duty": 6918,
      "patience": 6919,
      "curious": 6920,
      "posit": 6921,
      "clay": 6922,
      "worthless": 6923,
      "2012": 6924,
      "scope": 6925,
      "angeles": 6926,
      "torn": 6927,
      "topher": 6928,
      "complement": 6929,
      "tina": 6930,
      "arriba": 6931,
      "pawn": 6932,
      "styrofoam": 6933,
      "calzone": 6934,
      "flops": 6935,
      "attering": 6936,
      "healthier": 6937,
      "understanding": 6938,
      "crusted": 6939,
      "fixin": 6940,
      "fixings": 6941,
      "listing": 6942,
      "jeff": 6943,
      "snacks": 6944,
      "blos": 6945,
      "wrapping": 6946,
      "straightforward": 6947,
      "establishments": 6948,
      "outdoors": 6949,
      "gesture": 6950,
      "brioni": 6951,
      "archite": 6952,
      "traveling": 6953,
      "ators": 6954,
      "techni": 6955,
      "listened": 6956,
      "invest": 6957,
      "summary": 6958,
      "2009": 6959,
      "entertained": 6960,
      "gorgonzola": 6961,
      "oddly": 6962,
      "ringing": 6963,
      "blows": 6964,
      "hashbrowns": 6965,
      "christopher": 6966,
      "matched": 6967,
      "devoured": 6968,
      "companies": 6969,
      "accessories": 6970,
      "gae": 6971,
      "cubano": 6972,
      "browse": 6973,
      "gumbo": 6974,
      "irritating": 6975,
      "citiz": 6976,
      "referred": 6977,
      "seniors": 6978,
      "bumping": 6979,
      "magazines": 6980,
      "kraut": 6981,
      "significantly": 6982,
      "mirror": 6983,
      "branch": 6984,
      "miserable": 6985,
      "tattoos": 6986,
      "sirloin": 6987,
      "converted": 6988,
      "clerk": 6989,
      "education": 6990,
      "rubbery": 6991,
      "increas": 6992,
      "ancient": 6993,
      "british": 6994,
      "microwaved": 6995,
      "tzatziki": 6996,
      "pomegranate": 6997,
      "tiramisu": 6998,
      "manhattan": 6999,
      "-$": 7000,
      "88": 7001,
      "einste": 7002,
      "fai": 7003,
      "kne": 7004,
      "lon": 7005,
      "lau": 7006,
      "mber": 7007,
      "oj": 7008,
      "pul": 7009,
      "ral": 7010,
      "race": 7011,
      "sar": 7012,
      "tick": 7013,
      "uno": 7014,
      "ville": 7015,
      "wis": 7016,
      "zin": 7017,
      "infer": 7018,
      "inattentive": 7019,
      "rer": 7020,
      "refried": 7021,
      "encounter": 7022,
      "aled": 7023,
      "alive": 7024,
      "stiff": 7025,
      "iction": 7026,
      "arms": 7027,
      "meager": 7028,
      "weed": 7029,
      "wasabi": 7030,
      "acry": 7031,
      "nown": 7032,
      "noble": 7033,
      "sequ": 7034,
      "busi": 7035,
      "buca": 7036,
      "bubble": 7037,
      "soph": 7038,
      "robin": 7039,
      "tily": 7040,
      "myst": 7041,
      "cop": 7042,
      "abatta": 7043,
      "notable": 7044,
      "gos": 7045,
      "pea": 7046,
      "moments": 7047,
      "dose": 7048,
      "dobson": 7049,
      "august": 7050,
      "extr": 7051,
      "sig": 7052,
      "maker": 7053,
      "comped": 7054,
      "suite": 7055,
      "respond": 7056,
      "cano": 7057,
      "icker": 7058,
      "froyo": 7059,
      "bobby": 7060,
      "aggressive": 7061,
      "illo": 7062,
      "shin": 7063,
      "salv": 7064,
      "arded": 7065,
      "sheer": 7066,
      "whom": 7067,
      "stor": 7068,
      "stead": 7069,
      "sauer": 7070,
      "cleared": 7071,
      "glance": 7072,
      "somethings": 7073,
      "owns": 7074,
      "finds": 7075,
      "highest": 7076,
      "commission": 7077,
      "diverse": 7078,
      "episo": 7079,
      "handling": 7080,
      "opens": 7081,
      "thoughts": 7082,
      "tured": 7083,
      "freeze": 7084,
      "conscious": 7085,
      "scott": 7086,
      "warma": 7087,
      "cibo": 7088,
      "ciabatta": 7089,
      "penne": 7090,
      "obje": 7091,
      "tony": 7092,
      "meanwhile": 7093,
      "sprout": 7094,
      "subtle": 7095,
      "faction": 7096,
      "facial": 7097,
      "science": 7098,
      "11am": 7099,
      "holds": 7100,
      "harm": 7101,
      "satisfaction": 7102,
      "colorful": 7103,
      "element": 7104,
      "network": 7105,
      "cultural": 7106,
      "carrying": 7107,
      "rupt": 7108,
      "mccl": 7109,
      "crackers": 7110,
      "candles": 7111,
      "mothers": 7112,
      "mountains": 7113,
      "80s": 7114,
      "hooters": 7115,
      "heavenly": 7116,
      "busboy": 7117,
      "polished": 7118,
      "patients": 7119,
      "screams": 7120,
      "randomly": 7121,
      "ratio": 7122,
      "advertising": 7123,
      "hallway": 7124,
      "hanny": 7125,
      "pushing": 7126,
      "lord": 7127,
      "boneless": 7128,
      "drugs": 7129,
      "claims": 7130,
      "reflected": 7131,
      "sparse": 7132,
      "barbecue": 7133,
      "relevant": 7134,
      "struggled": 7135,
      "drowned": 7136,
      "passengers": 7137,
      "domestic": 7138,
      "ignoring": 7139,
      "mojito": 7140,
      "summit": 7141,
      "describes": 7142,
      "breeze": 7143,
      "scheduled": 7144,
      "fennel": 7145,
      "creek": 7146,
      "marginal": 7147,
      "supplements": 7148,
      "acrylic": 7149,
      "episode": 7150,
      "250": 7151,
      "?).": 7152,
      "abun": 7153,
      "bridge": 7154,
      "cd": 7155,
      "ctable": 7156,
      "cles": 7157,
      "dur": 7158,
      "dvd": 7159,
      "ew": 7160,
      "eight": 7161,
      "fred": 7162,
      "gle": 7163,
      "gather": 7164,
      "ires": 7165,
      "jason": 7166,
      "kona": 7167,
      "mats": 7168,
      "ox": 7169,
      "pse": 7170,
      "rules": 7171,
      "slee": 7172,
      "wam": 7173,
      "thaw": 7174,
      "inj": 7175,
      "anger": 7176,
      "antip": 7177,
      "erna": 7178,
      "error": 7179,
      "tori": 7180,
      "algae": 7181,
      "isite": 7182,
      "isting": 7183,
      "sta": 7184,
      "stinks": 7185,
      "mellow": 7186,
      "meets": 7187,
      "betray": 7188,
      "haz": 7189,
      "sep": 7190,
      "sober": 7191,
      "wipe": 7192,
      "wiped": 7193,
      "rival": 7194,
      "riding": 7195,
      "role": 7196,
      "roach": 7197,
      "arena": 7198,
      "logy": 7199,
      "cel": 7200,
      "sian": 7201,
      "pote": 7202,
      "comend": 7203,
      "wns": 7204,
      "plex": 7205,
      "iety": 7206,
      "greater": 7207,
      "condu": 7208,
      "consign": 7209,
      "agent": 7210,
      "hikers": 7211,
      "proced": 7212,
      "presu": 7213,
      "restric": 7214,
      "afterall": 7215,
      "crum": 7216,
      "flav": 7217,
      "bleed": 7218,
      "optic": 7219,
      "downfall": 7220,
      "crete": 7221,
      "creation": 7222,
      "psy": 7223,
      "msg": 7224,
      "mesquite": 7225,
      "pricy": 7226,
      "roomy": 7227,
      "rooseve": 7228,
      ".........": 7229,
      "ached": 7230,
      "trivia": 7231,
      "lessly": 7232,
      "monte": 7233,
      "1000": 7234,
      "intock": 7235,
      "delicate": 7236,
      "rais": 7237,
      "rows": 7238,
      "dives": 7239,
      "thomas": 7240,
      "puking": 7241,
      "sweetness": 7242,
      "freeway": 7243,
      "completed": 7244,
      "runner": 7245,
      "juke": 7246,
      "gyms": 7247,
      "mornings": 7248,
      "monthly": 7249,
      "sorta": 7250,
      "sorbet": 7251,
      "varies": 7252,
      "boxing": 7253,
      "darts": 7254,
      "sooner": 7255,
      "buttermilk": 7256,
      "papago": 7257,
      "beauty": 7258,
      "harder": 7259,
      "childhood": 7260,
      "rounded": 7261,
      "footh": 7262,
      "descending": 7263,
      "balanced": 7264,
      "equi": 7265,
      "organization": 7266,
      "roadhouse": 7267,
      "similarly": 7268,
      "heartbroken": 7269,
      "richard": 7270,
      "techs": 7271,
      "palace": 7272,
      "laughed": 7273,
      "yogurtland": 7274,
      "pulling": 7275,
      "patronage": 7276,
      "alcoholic": 7277,
      "strike": 7278,
      "16th": 7279,
      "decisions": 7280,
      "celebrating": 7281,
      "chopsticks": 7282,
      "individuals": 7283,
      "taberna": 7284,
      "wandered": 7285,
      "solved": 7286,
      "focused": 7287,
      "critic": 7288,
      "petsmart": 7289,
      "developed": 7290,
      "engine": 7291,
      "replacement": 7292,
      "embarrassed": 7293,
      "scraps": 7294,
      "bragging": 7295,
      "pepsi": 7296,
      "harassing": 7297,
      "benefit": 7298,
      "poisoning": 7299,
      "carpone": 7300,
      "aesthetic": 7301,
      "delectable": 7302,
      "redeeming": 7303,
      "disturbing": 7304,
      "category": 7305,
      "exclusive": 7306,
      "chutney": 7307,
      "wigwam": 7308,
      "einstein": 7309,
      "sauerkraut": 7310,
      "antipas": 7311,
      "roosevelt": 7312,
      "$$": 7313,
      ".'": 7314,
      "26": 7315,
      "4pm": 7316,
      "=)": 7317,
      "bat": 7318,
      "bic": 7319,
      "brid": 7320,
      "dood": 7321,
      "ike": 7322,
      "ibut": 7323,
      "iman": 7324,
      "jel": 7325,
      "jade": 7326,
      "james": 7327,
      "kab": 7328,
      "kah": 7329,
      "kathy": 7330,
      "lamp": 7331,
      "mme": 7332,
      "mash": 7333,
      "nis": 7334,
      "obs": 7335,
      "pk": 7336,
      "ppl": 7337,
      "pairs": 7338,
      "uk": 7339,
      "uu": 7340,
      "vit": 7341,
      "yc": 7342,
      "ying": 7343,
      "infl": 7344,
      "invisible": 7345,
      "refilling": 7346,
      "ancho": 7347,
      "erita": 7348,
      "atop": 7349,
      "aspect": 7350,
      "toe": 7351,
      "tots": 7352,
      "orleans": 7353,
      "ari": 7354,
      "mered": 7355,
      "ooks": 7356,
      "cham": 7357,
      "chest": 7358,
      "chian": 7359,
      "behav": 7360,
      "hai": 7361,
      "haw": 7362,
      "acts": 7363,
      "sem": 7364,
      "buster": 7365,
      "depot": 7366,
      "height": 7367,
      "roman": 7368,
      "roys": 7369,
      "limo": 7370,
      "cob": 7371,
      "ades": 7372,
      "admission": 7373,
      "loween": 7374,
      "lovers": 7375,
      "usa": 7376,
      "hoppin": 7377,
      "entit": 7378,
      "iration": 7379,
      "gods": 7380,
      "amish": 7381,
      "terra": 7382,
      "audi": 7383,
      "upsell": 7384,
      "...)": 7385,
      "compote": 7386,
      "quit": 7387,
      "condescending": 7388,
      "finan": 7389,
      "spap": 7390,
      "wade": 7391,
      "yell": 7392,
      "tavern": 7393,
      "shru": 7394,
      "drum": 7395,
      "mption": 7396,
      "gras": 7397,
      "umbre": 7398,
      "stomp": 7399,
      "mull": 7400,
      "wowed": 7401,
      "guard": 7402,
      "burrat": 7403,
      "partially": 7404,
      "firm": 7405,
      "drinker": 7406,
      "mediter": 7407,
      "tence": 7408,
      "newspap": 7409,
      "azed": 7410,
      "porta": 7411,
      "roots": 7412,
      "marg": 7413,
      "imitation": 7414,
      "mealy": 7415,
      "cork": 7416,
      "definately": 7417,
      "appointed": 7418,
      "broad": 7419,
      "ruins": 7420,
      "payment": 7421,
      "shabby": 7422,
      "regal": 7423,
      "halibut": 7424,
      "halloween": 7425,
      "consist": 7426,
      "cared": 7427,
      "warri": 7428,
      "boots": 7429,
      "onsite": 7430,
      "panang": 7431,
      "dedu": 7432,
      "bbly": 7433,
      "husbands": 7434,
      "coldplay": 7435,
      "seattle": 7436,
      "keys": 7437,
      "tember": 7438,
      "mascarpone": 7439,
      "clubs": 7440,
      "brownies": 7441,
      "grossed": 7442,
      "humor": 7443,
      "smoky": 7444,
      "choosing": 7445,
      "continually": 7446,
      "sourdough": 7447,
      "landed": 7448,
      "spinato": 7449,
      "touching": 7450,
      "safety": 7451,
      "painful": 7452,
      "film": 7453,
      "negatives": 7454,
      "attempts": 7455,
      "relations": 7456,
      "combin": 7457,
      "markers": 7458,
      "jama": 7459,
      "memory": 7460,
      "transl": 7461,
      "blowing": 7462,
      "remotely": 7463,
      "platters": 7464,
      "length": 7465,
      "fields": 7466,
      "substitute": 7467,
      "structure": 7468,
      "frustration": 7469,
      "chaos": 7470,
      "challenging": 7471,
      "addicted": 7472,
      "addictive": 7473,
      "jacket": 7474,
      "relief": 7475,
      "antique": 7476,
      "biscuit": 7477,
      "powder": 7478,
      "solely": 7479,
      "concerns": 7480,
      "suffer": 7481,
      "hundreds": 7482,
      "fifteen": 7483,
      "transport": 7484,
      "infection": 7485,
      "explore": 7486,
      "lifter": 7487,
      "barrio": 7488,
      "instructors": 7489,
      "therapist": 7490,
      "temporary": 7491,
      "snotty": 7492,
      "criptions": 7493,
      "toddler": 7494,
      "curtains": 7495,
      "scrumptious": 7496,
      "regional": 7497,
      "margherita": 7498,
      "bourbon": 7499,
      "dissapointed": 7500,
      "blossom": 7501,
      "mcclintock": 7502,
      "september": 7503,
      "foothills": 7504,
      "behavior": 7505,
      "',": 7506,
      "23": 7507,
      "abu": 7508,
      "cac": 7509,
      "cid": 7510,
      "cpk": 7511,
      "dv": 7512,
      "ez": 7513,
      "ean": 7514,
      "fitting": 7515,
      "foul": 7516,
      "glo": 7517,
      "gap": 7518,
      "ib": 7519,
      "lers": 7520,
      "lite": 7521,
      "mish": 7522,
      "mings": 7523,
      "nar": 7524,
      "nick": 7525,
      "nest": 7526,
      "nada": 7527,
      "omen": 7528,
      "rab": 7529,
      "slim": 7530,
      "skept": 7531,
      "udo": 7532,
      "ufc": 7533,
      "wound": 7534,
      "yer": 7535,
      "inner": 7536,
      "inos": 7537,
      "retri": 7538,
      "reverse": 7539,
      "angl": 7540,
      "eros": 7541,
      "atro": 7542,
      "tobe": 7543,
      "ori": 7544,
      "ook": 7545,
      "beli": 7546,
      "habit": 7547,
      "aces": 7548,
      "semes": 7549,
      "soju": 7550,
      "heav": 7551,
      "tiest": 7552,
      "kel": 7553,
      "liber": 7554,
      "lifes": 7555,
      "holl": 7556,
      "unsatisfied": 7557,
      "modest": 7558,
      "asta": 7559,
      "neiman": 7560,
      "tery": 7561,
      "mage": 7562,
      "tear": 7563,
      "suites": 7564,
      "quir": 7565,
      "urous": 7566,
      "canida": 7567,
      "prick": 7568,
      "greatly": 7569,
      "contract": 7570,
      "conclusion": 7571,
      "spite": 7572,
      "overrated": 7573,
      "premis": 7574,
      "presum": 7575,
      "shan": 7576,
      "shall": 7577,
      "drool": 7578,
      "thanh": 7579,
      "offended": 7580,
      "grun": 7581,
      "cric": 7582,
      "iger": 7583,
      "joined": 7584,
      "reader": 7585,
      "displays": 7586,
      "burning": 7587,
      "indication": 7588,
      "blvd": 7589,
      "smashed": 7590,
      "pricier": 7591,
      "happier": 7592,
      "carte": 7593,
      "markets": 7594,
      "shock": 7595,
      "trim": 7596,
      "lesser": 7597,
      "supreme": 7598,
      "wrist": 7599,
      "hubs": 7600,
      "huev": 7601,
      "clum": 7602,
      "breaks": 7603,
      "valve": 7604,
      "lade": 7605,
      "courts": 7606,
      "ideas": 7607,
      "decidedly": 7608,
      "cier": 7609,
      "300": 7610,
      "setup": 7611,
      "stays": 7612,
      "leyball": 7613,
      "secondly": 7614,
      "charlie": 7615,
      "interaction": 7616,
      "international": 7617,
      "juices": 7618,
      "mormon": 7619,
      "vote": 7620,
      "flown": 7621,
      "saturated": 7622,
      "slapped": 7623,
      "scattered": 7624,
      "hosts": 7625,
      "hosting": 7626,
      "empan": 7627,
      "sensor": 7628,
      "ranean": 7629,
      "provider": 7630,
      "earthy": 7631,
      "casey": 7632,
      "holders": 7633,
      "adobe": 7634,
      "splurge": 7635,
      "plantation": 7636,
      "warehouse": 7637,
      "squirt": 7638,
      "safely": 7639,
      "speakers": 7640,
      "failure": 7641,
      "complicated": 7642,
      "techno": 7643,
      "informative": 7644,
      "ethical": 7645,
      "teenager": 7646,
      "dozens": 7647,
      "cashiers": 7648,
      "loads": 7649,
      "wildflower": 7650,
      "consists": 7651,
      "volleyball": 7652,
      "sending": 7653,
      "comparing": 7654,
      "contains": 7655,
      "practices": 7656,
      "busser": 7657,
      "fluke": 7658,
      "generously": 7659,
      "contacted": 7660,
      "patiently": 7661,
      "blowdry": 7662,
      "bomber": 7663,
      "numero": 7664,
      "yellowtail": 7665,
      "competitive": 7666,
      "pastor": 7667,
      "surroundings": 7668,
      "jumped": 7669,
      "wandering": 7670,
      "intimid": 7671,
      "unbelievably": 7672,
      "dusty": 7673,
      "pouring": 7674,
      "savor": 7675,
      "econom": 7676,
      "communication": 7677,
      "depends": 7678,
      "associated": 7679,
      "skewers": 7680,
      "spark": 7681,
      "florist": 7682,
      "desperate": 7683,
      "bitchy": 7684,
      "refrigerated": 7685,
      "shouted": 7686,
      "spirits": 7687,
      "murphy": 7688,
      "braised": 7689,
      "quitos": 7690,
      "kalbi": 7691,
      "intrigued": 7692,
      "hospitality": 7693,
      "fritters": 7694,
      "cigarettes": 7695,
      "santa": 7696,
      "mechanical": 7697,
      "certificate": 7698,
      "cotton": 7699,
      "jumbo": 7700,
      "ritz": 7701,
      "cuticles": 7702,
      "sombreros": 7703,
      "influence": 7704,
      "quiznos": 7705,
      "marriott": 7706,
      "adventurous": 7707,
      "faith": 7708,
      "pseudo": 7709,
      "thawed": 7710,
      "hazard": 7711,
      "procedure": 7712,
      "jelly": 7713,
      "mediterranean": 7714,
      "semester": 7715,
      "canidae": 7716,
      "presumably": 7717,
      "huevos": 7718,
      "2am": 7719,
      "69": 7720,
      "98": 7721,
      "ake": 7722,
      "border": 7723,
      "cough": 7724,
      "clic": 7725,
      "david": 7726,
      "een": 7727,
      "gag": 7728,
      "glove": 7729,
      "ials": 7730,
      "ihop": 7731,
      "mich": 7732,
      "mort": 7733,
      "ns": 7734,
      "ppo": 7735,
      "pbr": 7736,
      "pian": 7737,
      "scan": 7738,
      "sons": 7739,
      "sketch": 7740,
      "tically": 7741,
      "tamar": 7742,
      "ud": 7743,
      "vas": 7744,
      "vul": 7745,
      "virt": 7746,
      "thunder": 7747,
      "rei": 7748,
      "anal": 7749,
      "era": 7750,
      "assigned": 7751,
      "ando": 7752,
      "alli": 7753,
      "itut": 7754,
      "isha": 7755,
      "isure": 7756,
      "esh": 7757,
      "stare": 7758,
      "stam": 7759,
      "stating": 7760,
      "legg": 7761,
      "leisure": 7762,
      "chap": 7763,
      "beloved": 7764,
      "beppo": 7765,
      "haus": 7766,
      "nosh": 7767,
      "solo": 7768,
      "whim": 7769,
      "versions": 7770,
      "ays": 7771,
      "deck": 7772,
      "rig": 7773,
      "ripe": 7774,
      "tipping": 7775,
      "kelly": 7776,
      "cops": 7777,
      "covers": 7778,
      "copper": 7779,
      "lolo": 7780,
      "user": 7781,
      "hog": 7782,
      "uncle": 7783,
      "unimpressed": 7784,
      "unethical": 7785,
      "asts": 7786,
      "sie": 7787,
      "resp": 7788,
      "bold": 7789,
      "bodies": 7790,
      "concrete": 7791,
      "avac": 7792,
      "agers": 7793,
      "agra": 7794,
      "agency": 7795,
      "yeast": 7796,
      "utch": 7797,
      "prevent": 7798,
      "tachi": 7799,
      "drastically": 7800,
      "pective": 7801,
      "izable": 7802,
      "grac": 7803,
      "gia": 7804,
      "giggle": 7805,
      "ummm": 7806,
      "joking": 7807,
      "fowl": 7808,
      "dispen": 7809,
      "displayed": 7810,
      "displeasure": 7811,
      "whead": 7812,
      "rences": 7813,
      "newer": 7814,
      "newly": 7815,
      "aze": 7816,
      "carried": 7817,
      "tripe": 7818,
      "freshness": 7819,
      "wontons": 7820,
      "10am": 7821,
      "cordon": 7822,
      "definite": 7823,
      "perspective": 7824,
      "persons": 7825,
      "tasteful": 7826,
      "clams": 7827,
      "treach": 7828,
      "puck": 7829,
      "chino": 7830,
      "curly": 7831,
      "decently": 7832,
      "horror": 7833,
      "gripe": 7834,
      "ahh": 7835,
      "sites": 7836,
      "styles": 7837,
      "signage": 7838,
      "skate": 7839,
      "interview": 7840,
      "extraordinary": 7841,
      "gyoz": 7842,
      "pressu": 7843,
      "void": 7844,
      "warming": 7845,
      "floating": 7846,
      "ballpark": 7847,
      "hangs": 7848,
      "rancid": 7849,
      "lists": 7850,
      "avoided": 7851,
      "text": 7852,
      "slimy": 7853,
      "continental": 7854,
      "douche": 7855,
      "capacity": 7856,
      "snar": 7857,
      "viagra": 7858,
      "elements": 7859,
      "bookstore": 7860,
      "credits": 7861,
      "bik": 7862,
      "mouths": 7863,
      "layer": 7864,
      "woods": 7865,
      "despise": 7866,
      "hydr": 7867,
      "athlet": 7868,
      "learning": 7869,
      "boards": 7870,
      "boarding": 7871,
      "moderately": 7872,
      "nicole": 7873,
      "hearted": 7874,
      "teenagers": 7875,
      "rotten": 7876,
      "constant": 7877,
      "massages": 7878,
      "napkin": 7879,
      "attendant": 7880,
      "overwhelm": 7881,
      "succeed": 7882,
      "environmental": 7883,
      "90s": 7884,
      "apply": 7885,
      "responds": 7886,
      "transfer": 7887,
      "remodel": 7888,
      "consumed": 7889,
      "trails": 7890,
      "70s": 7891,
      "federal": 7892,
      "improvements": 7893,
      "gently": 7894,
      "factors": 7895,
      "companions": 7896,
      "pistachi": 7897,
      "connected": 7898,
      "operating": 7899,
      "jumping": 7900,
      "dumped": 7901,
      "rubio": 7902,
      "gathered": 7903,
      "blanket": 7904,
      "fiancee": 7905,
      "fontina": 7906,
      "comfortably": 7907,
      "lanes": 7908,
      "cigars": 7909,
      "condiment": 7910,
      "********": 7911,
      "associates": 7912,
      "identify": 7913,
      "arrowhead": 7914,
      "desperately": 7915,
      "visitors": 7916,
      "croissants": 7917,
      "activity": 7918,
      "poop": 7919,
      "drizzle": 7920,
      "magnific": 7921,
      "inventive": 7922,
      "inventory": 7923,
      "renovated": 7924,
      "whiskey": 7925,
      "glorified": 7926,
      "thaiger": 7927,
      "society": 7928,
      "title": 7929,
      "arrangements": 7930,
      "guitar": 7931,
      "dangerous": 7932,
      "buddies": 7933,
      "george": 7934,
      "innocent": 7935,
      "architecture": 7936,
      "abundance": 7937,
      "kabob": 7938,
      "inflated": 7939,
      "relationship": 7940,
      "narrow": 7941,
      "atrocious": 7942,
      "heavily": 7943,
      "virtually": 7944,
      "leggings": 7945,
      "!...": 7946,
      "\"!": 7947,
      "'...": 7948,
      "+.": 7949,
      "46": 7950,
      "400": 7951,
      "9pm": 7952,
      "aver": 7953,
      "bm": 7954,
      "cad": 7955,
      "cine": 7956,
      "doo": 7957,
      "echo": 7958,
      "fest": 7959,
      "faded": 7960,
      "gable": 7961,
      "hin": 7962,
      "hiring": 7963,
      "ipo": 7964,
      "kis": 7965,
      "lting": 7966,
      "mun": 7967,
      "map": 7968,
      "pv": 7969,
      "pau": 7970,
      "pak": 7971,
      "raz": 7972,
      "sb": 7973,
      "slot": 7974,
      "sarc": 7975,
      "ues": 7976,
      "uck": 7977,
      "umin": 7978,
      "vir": 7979,
      "yan": 7980,
      "thier": 7981,
      "theart": 7982,
      "intend": 7983,
      "inals": 7984,
      "invisi": 7985,
      "rein": 7986,
      "relish": 7987,
      "represent": 7988,
      "reference": 7989,
      "anise": 7990,
      "atm": 7991,
      "attract": 7992,
      "attracted": 7993,
      "ene": 7994,
      "albert": 7995,
      "orang": 7996,
      "ises": 7997,
      "stat": 7998,
      "stink": 7999
    },
    "merges": [
      [
        "t",
        "h"
      ],
      [
        "th",
        "e"
      ],
      [
        "i",
        "n"
      ],
      [
        "r",
        "e"
      ],
      [
        "a",
        "n"
      ],
      [
        "e",
        "r"
      ],
      [
        "o",
        "u"
      ],
      [
        "a",
        "t"
      ],
      [
        "o",
        "n"
      ],
      [
        "a",
        "s"
      ],
      [
        "t",
        "o"
      ],
      [
        "an",
        "d"
      ],
      [
        "e",
        "n"
      ],
      [
        "a",
        "l"
      ],
      [
        "i",
        "t"
      ],
      [
        "o",
        "r"
      ],
      [
        "i",
        "s"
      ],
      [
        "in",
        "g"
      ],
      [
        "e",
        "d"
      ],
      [
        "e",
        "s"
      ],
      [
        "s",
        "t"
      ],
      [
        "i",
        "c"
      ],
      [
        "a",
        "r"
      ],
      [
        "l",
        "y"
      ],
      [
        "m",
        "e"
      ],
      [
        "o",
        "f"
      ],
      [
        "l",
        "e"
      ],
      [
        "o",
        "o"
      ],
      [
        "w",
        "e"
      ],
      [
        "w",
        "as"
      ],
      [
        "c",
        "h"
      ],
      [
        "v",
        "e"
      ],
      [
        "b",
        "e"
      ],
      [
        "h",
        "a"
      ],
      [
        "a",
        "c"
      ],
      [
        "n",
        "o"
      ],
      [
        "s",
        "e"
      ],
      [
        "b",
        "u"
      ],
      [
        "s",
        "o"
      ],
      [
        "w",
        "h"
      ],
      [
        "v",
        "er"
      ],
      [
        "f",
        "or"
      ],
      [
        ".",
        "."
      ],
      [
        "l",
        "l"
      ],
      [
        "a",
        "y"
      ],
      [
        "d",
        "e"
      ],
      [
        "y",
        "ou"
      ],
      [
        "oo",
        "d"
      ],
      [
        "w",
        "i"
      ],
      [
        "h",
        "e"
      ],
      [
        "r",
        "i"
      ],
      [
        "th",
        "at"
      ],
      [
        "r",
        "o"
      ],
      [
        "t",
        "i"
      ],
      [
        "m",
        "y"
      ],
      [
        "p",
        "l"
      ],
      [
        "g",
        "h"
      ],
      [
        "k",
        "e"
      ],
      [
        "bu",
        "t"
      ],
      [
        "l",
        "i"
      ],
      [
        "g",
        "e"
      ],
      [
        "c",
        "o"
      ],
      [
        "l",
        "d"
      ],
      [
        "a",
        "d"
      ],
      [
        "a",
        "b"
      ],
      [
        "wi",
        "th"
      ],
      [
        "ou",
        "t"
      ],
      [
        "a",
        "re"
      ],
      [
        "l",
        "o"
      ],
      [
        "th",
        "is"
      ],
      [
        "the",
        "y"
      ],
      [
        "no",
        "t"
      ],
      [
        "u",
        "s"
      ],
      [
        "h",
        "o"
      ],
      [
        "en",
        "t"
      ],
      [
        "i",
        "r"
      ],
      [
        "al",
        "l"
      ],
      [
        "al",
        "ly"
      ],
      [
        "g",
        "o"
      ],
      [
        "ic",
        "e"
      ],
      [
        "u",
        "n"
      ],
      [
        "i",
        "d"
      ],
      [
        "c",
        "e"
      ],
      [
        "ha",
        "ve"
      ],
      [
        "p",
        "e"
      ],
      [
        "m",
        "o"
      ],
      [
        "on",
        "e"
      ],
      [
        "as",
        "t"
      ],
      [
        "n",
        "e"
      ],
      [
        "d",
        "o"
      ],
      [
        "a",
        "m"
      ],
      [
        "t",
        "er"
      ],
      [
        "f",
        "e"
      ],
      [
        "ha",
        "d"
      ],
      [
        "a",
        "u"
      ],
      [
        "pl",
        "ac"
      ],
      [
        "ou",
        "ld"
      ],
      [
        "u",
        "st"
      ],
      [
        "an",
        "t"
      ],
      [
        "f",
        "ood"
      ],
      [
        "gh",
        "t"
      ],
      [
        "s",
        "er"
      ],
      [
        "ou",
        "r"
      ],
      [
        "ver",
        "y"
      ],
      [
        "u",
        "p"
      ],
      [
        "we",
        "re"
      ],
      [
        "en",
        "d"
      ],
      [
        "g",
        "ood"
      ],
      [
        "plac",
        "e"
      ],
      [
        "e",
        "x"
      ],
      [
        "i",
        "f"
      ],
      [
        "the",
        "re"
      ],
      [
        "s",
        "i"
      ],
      [
        "the",
        "r"
      ],
      [
        "p",
        "o"
      ],
      [
        "so",
        "me"
      ],
      [
        "g",
        "re"
      ],
      [
        "a",
        "p"
      ],
      [
        "th",
        "ing"
      ],
      [
        "ge",
        "t"
      ],
      [
        "j",
        "ust"
      ],
      [
        "li",
        "ke"
      ],
      [
        "m",
        "a"
      ],
      [
        "re",
        "d"
      ],
      [
        "..",
        "."
      ],
      [
        "ac",
        "k"
      ],
      [
        "t",
        "e"
      ],
      [
        "co",
        "m"
      ],
      [
        "s",
        "u"
      ],
      [
        "he",
        "re"
      ],
      [
        "i",
        "on"
      ],
      [
        "f",
        "ri"
      ],
      [
        "er",
        "s"
      ],
      [
        "t",
        "r"
      ],
      [
        "w",
        "ay"
      ],
      [
        "a",
        "f"
      ],
      [
        "q",
        "u"
      ],
      [
        "it",
        "e"
      ],
      [
        "w",
        "n"
      ],
      [
        "at",
        "e"
      ],
      [
        "re",
        "s"
      ],
      [
        "p",
        "le"
      ],
      [
        "an",
        "y"
      ],
      [
        "k",
        "ed"
      ],
      [
        "ser",
        "v"
      ],
      [
        "t",
        "y"
      ],
      [
        "u",
        "r"
      ],
      [
        "ou",
        "n"
      ],
      [
        "ic",
        "h"
      ],
      [
        "a",
        "in"
      ],
      [
        "k",
        "ing"
      ],
      [
        "o",
        "ther"
      ],
      [
        "v",
        "en"
      ],
      [
        "c",
        "an"
      ],
      [
        "u",
        "l"
      ],
      [
        "p",
        "r"
      ],
      [
        "ic",
        "k"
      ],
      [
        "es",
        "s"
      ],
      [
        "w",
        "ould"
      ],
      [
        "i",
        "e"
      ],
      [
        "s",
        "a"
      ],
      [
        "gre",
        "at"
      ],
      [
        "f",
        "ro"
      ],
      [
        "b",
        "o"
      ],
      [
        "ch",
        "e"
      ],
      [
        "wh",
        "en"
      ],
      [
        "re",
        "ally"
      ],
      [
        "t",
        "s"
      ],
      [
        "c",
        "on"
      ],
      [
        "in",
        "k"
      ],
      [
        "f",
        "in"
      ],
      [
        "p",
        "p"
      ],
      [
        "no",
        "w"
      ],
      [
        "the",
        "ir"
      ],
      [
        "ti",
        "me"
      ],
      [
        "a",
        "v"
      ],
      [
        "a",
        "g"
      ],
      [
        "h",
        "i"
      ],
      [
        "ti",
        "on"
      ],
      [
        "es",
        "t"
      ],
      [
        "d",
        "id"
      ],
      [
        "fro",
        "m"
      ],
      [
        "to",
        "o"
      ],
      [
        "d",
        "ay"
      ],
      [
        "d",
        "er"
      ],
      [
        "w",
        "or"
      ],
      [
        "ab",
        "out"
      ],
      [
        "wh",
        "at"
      ],
      [
        "b",
        "ack"
      ],
      [
        "s",
        "p"
      ],
      [
        "ou",
        "gh"
      ],
      [
        "i",
        "ll"
      ],
      [
        "is",
        "h"
      ],
      [
        "o",
        "ver"
      ],
      [
        "ou",
        "s"
      ],
      [
        "ab",
        "le"
      ],
      [
        "w",
        "a"
      ],
      [
        "p",
        "er"
      ],
      [
        "i",
        "l"
      ],
      [
        "d",
        "on"
      ],
      [
        "p",
        "ro"
      ],
      [
        "serv",
        "ice"
      ],
      [
        "y",
        "e"
      ],
      [
        "you",
        "r"
      ],
      [
        "c",
        "k"
      ],
      [
        "u",
        "t"
      ],
      [
        "p",
        "re"
      ],
      [
        "t",
        "a"
      ],
      [
        "wa",
        "it"
      ],
      [
        "at",
        "ion"
      ],
      [
        "ar",
        "t"
      ],
      [
        "s",
        "h"
      ],
      [
        "mo",
        "re"
      ],
      [
        "fri",
        "end"
      ],
      [
        "on",
        "ly"
      ],
      [
        "b",
        "y"
      ],
      [
        "c",
        "a"
      ],
      [
        "re",
        "st"
      ],
      [
        "e",
        "ven"
      ],
      [
        "be",
        "en"
      ],
      [
        "d",
        "r"
      ],
      [
        "m",
        "in"
      ],
      [
        "wh",
        "ich"
      ],
      [
        "s",
        "al"
      ],
      [
        "oun",
        "d"
      ],
      [
        "ar",
        "d"
      ],
      [
        "se",
        "e"
      ],
      [
        "e",
        "l"
      ],
      [
        "s",
        "he"
      ],
      [
        "pe",
        "c"
      ],
      [
        "wi",
        "ll"
      ],
      [
        "m",
        "p"
      ],
      [
        "i",
        "ght"
      ],
      [
        "th",
        "an"
      ],
      [
        "i",
        "z"
      ],
      [
        "l",
        "oo"
      ],
      [
        "t",
        "ast"
      ],
      [
        "of",
        "f"
      ],
      [
        "al",
        "so"
      ],
      [
        "the",
        "m"
      ],
      [
        "c",
        "au"
      ],
      [
        "it",
        "t"
      ],
      [
        "e",
        "very"
      ],
      [
        "ac",
        "t"
      ],
      [
        "g",
        "r"
      ],
      [
        "wh",
        "o"
      ],
      [
        "cau",
        "se"
      ],
      [
        "w",
        "ant"
      ],
      [
        "af",
        "ter"
      ],
      [
        "c",
        "r"
      ],
      [
        "si",
        "de"
      ],
      [
        "r",
        "ant"
      ],
      [
        "be",
        "cause"
      ],
      [
        "g",
        "i"
      ],
      [
        "m",
        "en"
      ],
      [
        "u",
        "m"
      ],
      [
        "in",
        "e"
      ],
      [
        "ho",
        "w"
      ],
      [
        "on",
        "g"
      ],
      [
        "go",
        "t"
      ],
      [
        "rest",
        "au"
      ],
      [
        "i",
        "g"
      ],
      [
        "restau",
        "rant"
      ],
      [
        "c",
        "ould"
      ],
      [
        "h",
        "as"
      ],
      [
        "j",
        "o"
      ],
      [
        "a",
        "k"
      ],
      [
        "!",
        "!"
      ],
      [
        "re",
        "ad"
      ],
      [
        "we",
        "ll"
      ],
      [
        "the",
        "n"
      ],
      [
        "ar",
        "s"
      ],
      [
        "f",
        "l"
      ],
      [
        "e",
        "at"
      ],
      [
        "t",
        "ed"
      ],
      [
        "f",
        "o"
      ],
      [
        "be",
        "t"
      ],
      [
        "f",
        "ul"
      ],
      [
        "s",
        "to"
      ],
      [
        "m",
        "u"
      ],
      [
        "i",
        "ous"
      ],
      [
        "n",
        "ice"
      ],
      [
        "d",
        "is"
      ],
      [
        "tr",
        "y"
      ],
      [
        "u",
        "ally"
      ],
      [
        "k",
        "now"
      ],
      [
        "es",
        "e"
      ],
      [
        "e",
        "t"
      ],
      [
        "b",
        "ar"
      ],
      [
        "b",
        "r"
      ],
      [
        "w",
        "o"
      ],
      [
        "de",
        "c"
      ],
      [
        "av",
        "or"
      ],
      [
        "did",
        "n"
      ],
      [
        "g",
        "u"
      ],
      [
        "or",
        "der"
      ],
      [
        "l",
        "itt"
      ],
      [
        "l",
        "u"
      ],
      [
        "way",
        "s"
      ],
      [
        "litt",
        "le"
      ],
      [
        "mo",
        "st"
      ],
      [
        "bu",
        "r"
      ],
      [
        "mu",
        "ch"
      ],
      [
        "wh",
        "e"
      ],
      [
        "v",
        "ie"
      ],
      [
        "b",
        "le"
      ],
      [
        "m",
        "ent"
      ],
      [
        "de",
        "red"
      ],
      [
        "s",
        "in"
      ],
      [
        "p",
        "ar"
      ],
      [
        "pre",
        "t"
      ],
      [
        "or",
        "dered"
      ],
      [
        "lo",
        "c"
      ],
      [
        "in",
        "d"
      ],
      [
        "pe",
        "o"
      ],
      [
        "o",
        "p"
      ],
      [
        "to",
        "m"
      ],
      [
        "s",
        "ay"
      ],
      [
        "do",
        "wn"
      ],
      [
        "peo",
        "ple"
      ],
      [
        "t",
        "ing"
      ],
      [
        "i",
        "le"
      ],
      [
        "lo",
        "ve"
      ],
      [
        "al",
        "ways"
      ],
      [
        "af",
        "f"
      ],
      [
        "st",
        "e"
      ],
      [
        "whe",
        "re"
      ],
      [
        "f",
        "ir"
      ],
      [
        "c",
        "oo"
      ],
      [
        "ne",
        "ver"
      ],
      [
        "m",
        "an"
      ],
      [
        "it",
        "y"
      ],
      [
        "t",
        "able"
      ],
      [
        "res",
        "s"
      ],
      [
        "bet",
        "ter"
      ],
      [
        "th",
        "ink"
      ],
      [
        "as",
        "s"
      ],
      [
        "d",
        "in"
      ],
      [
        "ch",
        "ick"
      ],
      [
        "b",
        "l"
      ],
      [
        "w",
        "ent"
      ],
      [
        "a",
        "ge"
      ],
      [
        "h",
        "er"
      ],
      [
        "pret",
        "ty"
      ],
      [
        "dr",
        "ink"
      ],
      [
        "d",
        "es"
      ],
      [
        "n",
        "ight"
      ],
      [
        "c",
        "re"
      ],
      [
        "fir",
        "st"
      ],
      [
        "chick",
        "en"
      ],
      [
        "go",
        "ing"
      ],
      [
        "m",
        "ay"
      ],
      [
        "ag",
        "ain"
      ],
      [
        "re",
        "n"
      ],
      [
        "p",
        "s"
      ],
      [
        "men",
        "u"
      ],
      [
        "i",
        "en"
      ],
      [
        "m",
        "s"
      ],
      [
        "m",
        "es"
      ],
      [
        "v",
        "ed"
      ],
      [
        "m",
        "ed"
      ],
      [
        "st",
        "aff"
      ],
      [
        "t",
        "en"
      ],
      [
        "th",
        "ough"
      ],
      [
        "l",
        "ic"
      ],
      [
        "b",
        "est"
      ],
      [
        "ri",
        "ght"
      ],
      [
        "ma",
        "ke"
      ],
      [
        ")",
        "."
      ],
      [
        "ne",
        "w"
      ],
      [
        "vie",
        "w"
      ],
      [
        "a",
        "z"
      ],
      [
        "fo",
        "re"
      ],
      [
        "at",
        "ed"
      ],
      [
        "ca",
        "me"
      ],
      [
        "s",
        "m"
      ],
      [
        "r",
        "y"
      ],
      [
        "un",
        "ch"
      ],
      [
        "se",
        "l"
      ],
      [
        "g",
        "er"
      ],
      [
        "re",
        "e"
      ],
      [
        "po",
        "in"
      ],
      [
        "p",
        "or"
      ],
      [
        "o",
        "k"
      ],
      [
        "pr",
        "ic"
      ],
      [
        "ha",
        "pp"
      ],
      [
        "at",
        "er"
      ],
      [
        "ne",
        "ed"
      ],
      [
        "s",
        "au"
      ],
      [
        "iz",
        "z"
      ],
      [
        "co",
        "me"
      ],
      [
        "k",
        "s"
      ],
      [
        "st",
        "ill"
      ],
      [
        "p",
        "izz"
      ],
      [
        "t",
        "wo"
      ],
      [
        "i",
        "x"
      ],
      [
        "it",
        "s"
      ],
      [
        "v",
        "ing"
      ],
      [
        "ma",
        "de"
      ],
      [
        "h",
        "our"
      ],
      [
        "sal",
        "ad"
      ],
      [
        "b",
        "ad"
      ],
      [
        "ex",
        "per"
      ],
      [
        "r",
        "oo"
      ],
      [
        "g",
        "g"
      ],
      [
        "n",
        "er"
      ],
      [
        "che",
        "ese"
      ],
      [
        "pec",
        "i"
      ],
      [
        "ou",
        "ght"
      ],
      [
        "exper",
        "ien"
      ],
      [
        "ta",
        "ke"
      ],
      [
        "a",
        "w"
      ],
      [
        "c",
        "le"
      ],
      [
        "c",
        "ar"
      ],
      [
        "ti",
        "mes"
      ],
      [
        "t",
        "ur"
      ],
      [
        "be",
        "fore"
      ],
      [
        "e",
        "ver"
      ],
      [
        "c",
        "t"
      ],
      [
        "re",
        "view"
      ],
      [
        "b",
        "er"
      ],
      [
        "a",
        "ir"
      ],
      [
        "po",
        "t"
      ],
      [
        "a",
        "ve"
      ],
      [
        "..",
        ".."
      ],
      [
        "i",
        "an"
      ],
      [
        "wh",
        "ile"
      ],
      [
        "m",
        "ar"
      ],
      [
        "l",
        "p"
      ],
      [
        "sa",
        "id"
      ],
      [
        "a",
        "ch"
      ],
      [
        "b",
        "it"
      ],
      [
        "w",
        "al"
      ],
      [
        "fe",
        "w"
      ],
      [
        "i",
        "m"
      ],
      [
        "s",
        "ho"
      ],
      [
        "pizz",
        "a"
      ],
      [
        "t",
        "ri"
      ],
      [
        "l",
        "es"
      ],
      [
        "ar",
        "ound"
      ],
      [
        "me",
        "al"
      ],
      [
        "l",
        "ess"
      ],
      [
        "an",
        "other"
      ],
      [
        "sel",
        "f"
      ],
      [
        "sau",
        "ce"
      ],
      [
        "c",
        "us"
      ],
      [
        "fl",
        "avor"
      ],
      [
        "m",
        "on"
      ],
      [
        "su",
        "re"
      ],
      [
        "s",
        "and"
      ],
      [
        "ch",
        "o"
      ],
      [
        "f",
        "res"
      ],
      [
        "s",
        "up"
      ],
      [
        "c",
        "tion"
      ],
      [
        "le",
        "t"
      ],
      [
        "sin",
        "ce"
      ],
      [
        "lo",
        "w"
      ],
      [
        "ut",
        "es"
      ],
      [
        "f",
        "ast"
      ],
      [
        "l",
        "unch"
      ],
      [
        "gi",
        "ve"
      ],
      [
        "b",
        "re"
      ],
      [
        "min",
        "utes"
      ],
      [
        "fres",
        "h"
      ],
      [
        "act",
        "ually"
      ],
      [
        "u",
        "re"
      ],
      [
        "friend",
        "ly"
      ],
      [
        "is",
        "t"
      ],
      [
        "g",
        "l"
      ],
      [
        "w",
        "on"
      ],
      [
        "some",
        "thing"
      ],
      [
        "v",
        "is"
      ],
      [
        "experien",
        "ce"
      ],
      [
        "ou",
        "p"
      ],
      [
        "ch",
        "i"
      ],
      [
        "f",
        "r"
      ],
      [
        "at",
        "o"
      ],
      [
        "1",
        "0"
      ],
      [
        "ab",
        "ly"
      ],
      [
        "w",
        "ich"
      ],
      [
        "fe",
        "el"
      ],
      [
        "sand",
        "wich"
      ],
      [
        "p",
        "ho"
      ],
      [
        "as",
        "on"
      ],
      [
        "ing",
        "s"
      ],
      [
        "f",
        "f"
      ],
      [
        "k",
        "es"
      ],
      [
        "l",
        "ong"
      ],
      [
        "was",
        "n"
      ],
      [
        "o",
        "wn"
      ],
      [
        "b",
        "ig"
      ],
      [
        "be",
        "ing"
      ],
      [
        "sh",
        "ould"
      ],
      [
        "c",
        "all"
      ],
      [
        "do",
        "es"
      ],
      [
        "al",
        "e"
      ],
      [
        "fin",
        "d"
      ],
      [
        "c",
        "lo"
      ],
      [
        "as",
        "ked"
      ],
      [
        "sm",
        "all"
      ],
      [
        "l",
        "ast"
      ],
      [
        "cus",
        "tom"
      ],
      [
        "loc",
        "ation"
      ],
      [
        "i",
        "ve"
      ],
      [
        "ho",
        "me"
      ],
      [
        "wor",
        "k"
      ],
      [
        "pr",
        "ice"
      ],
      [
        "tur",
        "n"
      ],
      [
        "x",
        "t"
      ],
      [
        "f",
        "u"
      ],
      [
        "d",
        "u"
      ],
      [
        "d",
        "ish"
      ],
      [
        "ne",
        "xt"
      ],
      [
        "me",
        "at"
      ],
      [
        "happ",
        "y"
      ],
      [
        "bur",
        "ger"
      ],
      [
        "w",
        "r"
      ],
      [
        "c",
        "or"
      ],
      [
        "a",
        "me"
      ],
      [
        "i",
        "o"
      ],
      [
        "hi",
        "gh"
      ],
      [
        "de",
        "fin"
      ],
      [
        "jo",
        "y"
      ],
      [
        "in",
        "to"
      ],
      [
        "s",
        "at"
      ],
      [
        "li",
        "ght"
      ],
      [
        "we",
        "e"
      ],
      [
        "lo",
        "t"
      ],
      [
        "c",
        "as"
      ],
      [
        "an",
        "s"
      ],
      [
        "i",
        "es"
      ],
      [
        "st",
        "and"
      ],
      [
        "roo",
        "m"
      ],
      [
        "ite",
        "ly"
      ],
      [
        "are",
        "a"
      ],
      [
        "en",
        "joy"
      ],
      [
        "may",
        "be"
      ],
      [
        "p",
        "at"
      ],
      [
        "i",
        "ly"
      ],
      [
        "de",
        "lic"
      ],
      [
        "din",
        "ner"
      ],
      [
        "com",
        "m"
      ],
      [
        "r",
        "a"
      ],
      [
        "of",
        "fe"
      ],
      [
        "h",
        "is"
      ],
      [
        "ser",
        "ver"
      ],
      [
        "an",
        "g"
      ],
      [
        "d",
        "if"
      ],
      [
        "ap",
        "poin"
      ],
      [
        "m",
        "any"
      ],
      [
        "p",
        "art"
      ],
      [
        "p",
        "ers"
      ],
      [
        "cle",
        "an"
      ],
      [
        "m",
        "is"
      ],
      [
        "defin",
        "itely"
      ],
      [
        "k",
        "ind"
      ],
      [
        "or",
        "t"
      ],
      [
        "to",
        "ld"
      ],
      [
        "pro",
        "b"
      ],
      [
        "delic",
        "ious"
      ],
      [
        "s",
        "peci"
      ],
      [
        "ad",
        "d"
      ],
      [
        "speci",
        "al"
      ],
      [
        "prob",
        "ably"
      ],
      [
        "ren",
        "t"
      ],
      [
        "en",
        "ough"
      ],
      [
        "h",
        "u"
      ],
      [
        "b",
        "read"
      ],
      [
        "b",
        "as"
      ],
      [
        "st",
        "ars"
      ],
      [
        "ex",
        "pec"
      ],
      [
        "c",
        "ent"
      ],
      [
        "too",
        "k"
      ],
      [
        "c",
        "u"
      ],
      [
        "every",
        "thing"
      ],
      [
        "p",
        "ic"
      ],
      [
        "pers",
        "on"
      ],
      [
        "ap",
        "pe"
      ],
      [
        "s",
        "y"
      ],
      [
        "ho",
        "t"
      ],
      [
        "ro",
        "w"
      ],
      [
        "st",
        "ar"
      ],
      [
        "gu",
        "y"
      ],
      [
        "he",
        "lp"
      ],
      [
        "no",
        "thing"
      ],
      [
        "po",
        "s"
      ],
      [
        "ar",
        "ge"
      ],
      [
        "o",
        "ld"
      ],
      [
        "ex",
        "ce"
      ],
      [
        "vis",
        "it"
      ],
      [
        "st",
        "u"
      ],
      [
        "loo",
        "king"
      ],
      [
        "tast",
        "e"
      ],
      [
        "m",
        "us"
      ],
      [
        "want",
        "ed"
      ],
      [
        "ro",
        "ll"
      ],
      [
        "bo",
        "th"
      ],
      [
        "e",
        "f"
      ],
      [
        "dis",
        "appoin"
      ],
      [
        "d",
        "i"
      ],
      [
        "e",
        "p"
      ],
      [
        "c",
        "l"
      ],
      [
        "wor",
        "th"
      ],
      [
        "al",
        "ity"
      ],
      [
        "thing",
        "s"
      ],
      [
        "s",
        "we"
      ],
      [
        "to",
        "wn"
      ],
      [
        "tion",
        "s"
      ],
      [
        "h",
        "and"
      ],
      [
        "f",
        "t"
      ],
      [
        "ul",
        "ar"
      ],
      [
        "bre",
        "ak"
      ],
      [
        "c",
        "oun"
      ],
      [
        "v",
        "al"
      ],
      [
        "drink",
        "s"
      ],
      [
        "op",
        "en"
      ],
      [
        "w",
        "ater"
      ],
      [
        "t",
        "ain"
      ],
      [
        "co",
        "l"
      ],
      [
        "sto",
        "re"
      ],
      [
        "re",
        "ason"
      ],
      [
        "s",
        "us"
      ],
      [
        "wh",
        "y"
      ],
      [
        "v",
        "es"
      ],
      [
        "pric",
        "es"
      ],
      [
        "th",
        "ought"
      ],
      [
        "p",
        "t"
      ],
      [
        "t",
        "re"
      ],
      [
        "dif",
        "fe"
      ],
      [
        ")",
        ","
      ],
      [
        "fri",
        "es"
      ],
      [
        "un",
        "der"
      ],
      [
        "p",
        "ast"
      ],
      [
        "b",
        "ro"
      ],
      [
        "che",
        "ck"
      ],
      [
        "sa",
        "me"
      ],
      [
        "re",
        "comm"
      ],
      [
        "at",
        "ch"
      ],
      [
        "recomm",
        "end"
      ],
      [
        "at",
        "ing"
      ],
      [
        "d",
        "ri"
      ],
      [
        "i",
        "mp"
      ],
      [
        "we",
        "ver"
      ],
      [
        "ho",
        "wever"
      ],
      [
        "m",
        "m"
      ],
      [
        "an",
        "ce"
      ],
      [
        "r",
        "u"
      ],
      [
        "t",
        "al"
      ],
      [
        "am",
        "az"
      ],
      [
        "el",
        "se"
      ],
      [
        "t",
        "ac"
      ],
      [
        "st",
        "art"
      ],
      [
        "g",
        "ar"
      ],
      [
        "the",
        "se"
      ],
      [
        "2",
        "0"
      ],
      [
        "s",
        "co"
      ],
      [
        "p",
        "ay"
      ],
      [
        "an",
        "ge"
      ],
      [
        "qu",
        "ite"
      ],
      [
        "a",
        "i"
      ],
      [
        "f",
        "avor"
      ],
      [
        "re",
        "al"
      ],
      [
        "any",
        "thing"
      ],
      [
        "wee",
        "k"
      ],
      [
        "id",
        "ed"
      ],
[...]
